<unk>
<s>
</s>
,
.
the
के
of
and
और
में
to
है
की
-
(
)
in
से
a
को
का
is
है।
कि
for
पर
लिए
एक
that
तो
नहीं
&apos;
you
जो
हैं
:
The
be
भी
s
not
ने
कर
are
it
ही
on
with
यह
हो
as
or
0
किया
;
?
इस
was
1
वह
by
they
%
have
/
from
या
करने
न
will
them
this
अपने
I
has
which
an
"
who
his
&quot;
वे
हैं।
तथा
their
He
तुम
कुछ
he
2
at
_
हम
And
कोई
किसी
We
all
!
साथ
Allah
गया
उनके
था
रूप
4
लोगों
9
your
करते
लोग
ये
जब
द्वारा
क्या
5
one
तक
but
जा
फिर
we
'
India
दिया
had
were
अल्लाह
उसके
करें
been
मैं
भारत
जाता
अपनी
do
A
him
It
can
”
those
उस
people
करना
ख़ुदा
उन्हें
when
आप
कहा
थे
होता
its
रहे
करता
उसे
said
6
उन
any
shall
रहा
what
हुए
our
बहुत
In
there
सकता
if
God
Lord
अ@@
समय
other
so
also
3
no
दो
“
This
u
तरह
वाले
था।
may
हमने
only
would
बात
अधिक
पहले
बाद
out
time
उनकी
उन्होंने
दिन
पास
us
up
यदि
t
un@@
व
then
दी
हमारे
तुम्हारे
ले
सभी
होने
ओर
हुआ
made
about
more
into
i
क@@
should
But
They
काम
like
प्रकार
न@@
सकते
ऐ
उसकी
इन
कार्य
आ@@
क
।
’
such
इसके
my
प्राप्त
me
होती
ऐसे
मुझे
वि@@
S@@
म@@
थी
some
गए
अन्य
than
जाने
क्षेत्र
गई
these
नाम
in@@
ऐसा
two
र@@
एवं
ल@@
अगर
किए
स@@
राष्ट्रपति
कारण
So
अब
&#91;
over
before
B@@
&#93;
उसने
re@@
His
under
new
C@@
भारतीय
सब
ता
थे।
ing
दे
लेकिन
life
कम
after
ना
day
P@@
विकास
होगा
सरकार
हर
If
her
तुम्हें
दोनों
रसूल
8
त@@
वाला
K@@
You
देश
7
k@@
सं@@
say
am
सी
ब@@
आ
D@@
जाती
Indian
प्रदान
व्यक्ति
जिस
राज्य
good
जीवन
करो
used
स
बारे
होते
व@@
जैसे
ए@@
L@@
हुई
प@@
ना@@
र
बीच
way
O
world
मेरे
being
ल
make
g@@
s@@
उसका
प्र@@
b@@
through
लिया
G@@
could
द@@
रही
&amp;
between
ation
वर्ष
ं@@
al
ऐसी
down
very
म
er
d@@
T@@
रब
first
know
बार
ली
There
A@@
उनका
ज@@
केवल
most
man
का@@
come
हो।
वही
हमें
e
many
ईमान
did
upon
F@@
well
M@@
es
All
N@@
t@@
वाली
अपना
y@@
थी।
प्रयोग
ग@@
ः
o
work
पैदा
मा@@
नि@@
हमारी
को@@
Government
earth
R@@
p@@
ताकि
years
जी
बड़ा
जाना
ह@@
इसे
name
उसी
able
country
जिसमें
चाहिए
see
against
सबसे
प्रति
दूसरे
क्योंकि
ला@@
बे@@
ए
take
n@@
देने
ar@@
H@@
even
य@@
बा@@
कभी
ला
ate
वा@@
जाते
इसमें
ed
m@@
संदेश
ers
because
ता@@
सु@@
उपयोग
अथवा
च@@
does
तब
President
dis@@
सा@@
पा@@
c@@
Him
v@@
ट
right
given
नी
देता
use
d
must
स्थान
बना
जिसे
ज
E@@
believe
ते
e@@
उनसे
उससे
l@@
भाग
When
सूचना
परवरदिगार
en@@
सि@@
where
बस
among
sent
ती
y
स्थिति
पता
इसलिए
त
राष्ट्रीय
set
own
Our
place
h@@
उ@@
फ़ाइल
हूँ
मेरी
बड़ी
To
इ@@
ट@@
द
सकती
न्@@
कु@@
श@@
चीज़
r@@
al@@
get
great
away
b
give
year
how
पूर्ण
every
State
Day
मे
m
गया।
करती
सहायता
आज
होना
o@@
ई
i@@
an@@
f@@
शिक्षा
part
बल्कि
er@@
रि@@
ye
file
अलग
किया।
now
पूर्व
यहाँ
सूची
x
रा@@
water
यही
while
कहते
जाएगा
back
-@@
number
go
W@@
इससे
उनमें
चाहिए।
per
{
स्@@
}
कई
ड@@
system
As
आपको
Then
For
am@@
C
same
ated
प
men
ad@@
मि@@
सी@@
करके
विचार
उनको
im@@
आगे
मु@@
सामने
V@@
ले@@
power
जिन
ar
विशेष
each
लिये
कह
श्री
विभिन्न
इसका
अच्छा
end
लि@@
मे@@
घर
things
रे@@
indeed
called
पूरा
याद
ड
land
What
चाहते
योजना
Act
उसमें
रो@@
a@@
both
help
here
शामिल
दौरान
came
तरफ
बाहर
st@@
री
इसी
just
another
during
निश्चय
12
ख@@
w@@
जा@@
बड़े
देते
ओ@@
दा@@
सेवा
>
मार्ग
person
–
age
...
जिसके
she
तैयार
order
र्@@
want
n
क्@@
उपलब्ध
अनुसार
अधिनियम
आधार
जहां
without
ch@@
development
long
p
nor
Do
at@@
J@@
No
प्रत्येक
O@@
S
आपके
अभि@@
के@@
नई
ई@@
k
different
u@@
case
need
विषय
दुनिया
से@@
much
संबंधित
it@@
three
या@@
संबंध
फ@@
whom
found
पत्र
अज़ाब
जाए
धारा
knowledge
ने@@
स्तर
That
संख्या
बि@@
as@@
or@@
let
information
पानी
ent
हेतु
शक्ति
&gt;
message
य
टी
बनाने
निर्माण
th@@
means
ऊपर
I@@
ant
मैंने
प्रक्रिया
My
भाषा
ज्ञान
j@@
पूरी
ज़
अनेक
ठीक
ab@@
परि@@
On
बन
form
विश्व
स्वयं
cannot
अनु@@
नों
तुम्हारा
मो@@
di@@
तुम्हारी
created
‘
ted
यहां
3@@
पी@@
re
&lt;
truth
ts
शुरू
होगा।
ri@@
तीन
unto
जिसने
state
सा
मन
रखा
डि@@
less
Name
खुदा
जारी
सामान्य
दूर
उप@@
ो
ग
National
वे@@
In@@
मुख्य
श
अवसर
बेशक
ap@@
नीचे
प्रति@@
पि@@
find
धरती
अच्छे
चाहता
never
बनाया
going
किन्तु
account
18
रा
मगर
बिना
करे
उच्च
etc
become
महत्वपूर्ण
surely
अतः
de@@
लगे
बी@@
कों
on@@
दर
फ़ोल्डर
ज़मीन
पीछे
ating
known
These
taken
जिसका
important
होकर
हों
कार
गो@@
सारे
आर्थिक
प्रतिशत
body
होंगे
es@@
पी
मदद
&
ध्यान
times
evil
except
बैंक
लो@@
जनता
नी@@
days
मान
अधिकार
भ@@
विज्ञान
l
मेरा
g
best
children
el@@
Say
ति@@
period
http
इनकार
रंग
D
done
कि@@
en
क्षेत्रों
माल
इसकी
आदि
किताब
con@@
window
ting
ous
fear
देना
is@@
11
देखा
क्यों
धर्म
—
अधीन
विश्वास
जि@@
गा@@
c
last
public
too
जबकि
ex@@
themselves
काफी
गये
रह
प्रौद्योगिकी
दिया।
स्पष्ट
list
त्@@
R
ज़@@
ली@@
human
जानकारी
करेगा
लेकर
U@@
काल
अर्थ
डर
मा
old
लाभ
ag@@
अच्छी
भवन
मी
small
अभी
टे@@
women
process
others
ti@@
#
प्रमुख
OF
present
ur@@
लो
रू@@
आई
समूह
2@@
होगी
ro@@
मूल
आने
दिए
An
उत्तर
13
लगा
हा@@
ha@@
स्थापित
हाथ
ज्यादा
गु@@
within
better
‘@@
उद्योग
language
ब
वालों
सामाजिक
पर@@
आय
कृषि
various
ं
large
New
जी@@
education
due
डी
तू
ic
जल
again
चि@@
पो@@
रखते
Y@@
One
देख
ों
टि@@
Indeed
हि@@
something
लगभग
बी
ध@@
left
ine
heavens
government
छ@@
नया
प्रणाली
कहीं
परिवर्तन
action
z@@
दु@@
ance
punishment
company
समाज
जैसा
h
पे@@
available
sh@@
बो@@
आवश्यक
सिवा
जगह
हूं
यातना
बराबर
sp@@
लों
high
तों
गयी
ac@@
क़ौम
ल्@@
जानते
शि@@
ड़
माध्यम
रात
bring
बु@@
think
T
तुमसे
रहने
put
जानता
मूल्य
ly
today
brought
social
section
kgm
नीति
प्रभाव
मिल
turn
कार्यक्रम
em@@
दार
open
thou
चाहे
जिससे
सही
मामले
business
रों
M
Who
चा@@
उत्पादन
समान
value
अव@@
law
चार
um
संपर्क
Shri
king
टा@@
data
Your
call
जु@@
towards
Book
ya
family
E
मूसा
book
true
ंग
अवधि
ऋण
आवश्यकता
ir@@
नए
देशों
change
लें
उसको
लागू
tions
ity
full
कंपनी
दें
मै@@
अतिरिक्त
आदेश
स्वीकार
cause
चुके
आकार
son
टी@@
छोड़
सिर्फ
क्षमता
off
सो@@
op@@
already
ic@@
रखने
P
Z@@
वहाँ
रहते
gave
matter
type
सभा
भा@@
little
महा@@
amount
कहने
वा
clear
line
वास्तव
सुरक्षा
est
नही
वहां
B
तुमने
eth
ul@@
खा@@
Rs
चल
वर्ग
लेने
<
four
il@@
18@@
id@@
शरीर
दि@@
हमेशा
service
प्रयास
ख
व्यवस्था
लाए
folder
himself
आया
कौन
ment
thing
ह
might
ओं
वर्तमान
की।
x@@
Con@@
death
pro@@
किस
signs
कुल
area
mind
words
night
10
जिन्हें
view
परियोजना
light
न्यायालय
side
मत
विधि
वक्त
दृष्टि
Those
जमा
शा@@
एं
far
love
support
दूसरी
based
घ@@
म्@@
जन
ol@@
ever
be@@
दा
भर
pl@@
group
विभाग
बल
चुका
छोटे
ak@@
्
डा@@
par@@
निर्धारित
together
देखते
ates
point
economic
दी@@
ia
पु@@
still
आग
समझ
Re@@
took
Central
ations
services
वर्@@
level
रु@@
few
above
की@@
cent
परिणाम
बच्चों
छवि
co@@
सीमा
nation
hand
हमारा
बदला
निर्णय
ence
certain
इतिहास
Please
tion
food
*
जान
@
whole
एस
कैसे
निस्संदेह
free
fact
दिल
Show
शब्द
व्यापार
यात्रा
उद्देश्य
os@@
जिन्होंने
यू@@
000
led
ve
worship
राशि
हाल
per@@
सर
तौर
return
always
though
areas
Bhavan
है@@
मानव
following
ण
सहयोग
countries
करें।
स्थित
कता
act
वर्षों
le@@
house
वस्तु
le
सिंह
An@@
जिनके
therefore
av@@
लगता
सुधार
around
अप@@
अनुसंधान
li@@
सदस्य
provide
r
खोज
अंतिम
े@@
स्वास्थ्य
बाहरी
seen
making
om@@
common
project
show
भूमि
सम@@
provided
अंतर्गत
डी@@
ask
थ@@
“@@
ें
als
बंद
ित
ana
having
Sh@@
position
वी
तुमको
deeds
संबंधी
निश्चित
जे@@
परन्तु
मी@@
भू@@
त्रुटि
आए
nothing
करेंगे
टो@@
create
hearts
date
यों
selected
F
कर्म
कृपया
विशिष्ट
स्थानीय
मौजूद
ीय
ओ
members
Hindi
री@@
ra@@
policy
साल
माना
growth
हूं।
ings
ंग@@
five
आधारित
war
युद्ध
believers
follow
error
ter
सक्रिय
British
परंतु
दे@@
She
सका
national
विश्वविद्यालय
yet
faith
प्रस्तुत
पा
हो@@
society
ो@@
समाप्त
whether
योग्य
thee
मनुष्य
बेहतर
lo@@
किये
सर्वर
कर@@
विकसित
whose
Rashtrapati
et@@
political
नहीं।
प्रदेश
बनाए
sector
word
संस्थान
path
How
वास्ते
बर@@
लोक
डाक
भेजा
डे@@
वृद्धि
control
ठ@@
च
interest
आरंभ
अन@@
using
equal
कै@@
until
self
Delhi
tr@@
अधिकारी
respect
At
became
Most
look
नियंत्रण
keep
दिल्ली
Ch@@
ँ@@
rate
…
यन
रहता
केंद्र
राष्ट्र
next
यो@@
विंडो
ones
After
f
वाद
religion
टा
इं@@
went
ी@@
नो@@
सरकारी
हुक्म
ु
सत्य
सहायक
et
home
जिसकी
तु@@
धन
non
possible
sub@@
address
खंड
फि@@
industry
child
भाई
+
wrong
राज@@
वित्तीय
files
including
ण@@
नियम
सू@@
income
वादी
संघ
लेते
local
परिवार
जन@@
ness
अमेरिका
प्रथम
red
main
विदेशी
प्@@
हैः
read
आदमी
later
required
States
heart
जो@@
खाता
ec@@
health
जहाँ
लक्ष्य
L
पाया
English
हे@@
ू
along
Al@@
स्थापना
वी@@
thought
टर
certainly
capital
फ़@@
नाज़िल
term
current
nature
Y
मध्य
अं@@
मात्रा
rec@@
दिखाएँ
आसमान
up@@
बच्चे
उत्पन्न
संविधान
रोग
Singh
ऐ@@
held
दिनों
अधि@@
इतना
गि@@
ख़@@
ी
पहली
इस्तेमाल
निवेश
kind
Messenger
राह
father
um@@
कल
वै@@
se@@
क़यामत
money
second
बाजार
प्रवेश
चुनें
la@@
image
application
गी
ड़@@
Par@@
production
मृत्यु
संयुक्त
भूमिका
field
टन
Muhammad
पद
विकल्प
नु@@
qu@@
Moses
se
reward
quality
खेल
उदाहरण
दिशा
हुआ।
तर@@
आम
प्रारंभ
अनुमति
car@@
जरूरत
ist
सामग्री
leave
key
us@@
By
ut@@
अनुभव
पिछले
भिन्न
sure
प्रबंधन
several
working
Ex@@
अंत
समिति
प्रेम
further
अध्ययन
mon@@
झ@@
दृश्य
पाठ
अत्यन्त
साहित्य
समर्थन
17
&apos;@@
उनपर
for@@
लाल
knows
लाख
प्रा@@
ish
ch
शासन
जाएँ
कं@@
save
th
भुगतान
क़@@
face
id
itself
जांच
चु@@
तंत्र
course
दक्षिण
Some
वापस
जाएँगे
जाओ
and@@
प्रश्न
चयनित
received
comes
Congress
अलावा
started
फ
pr@@
ative
necessary
ism
कोशिश
पड़े
meeting
live
पृष्ठ
Could
जाएगी
asked
ent@@
history
हिस्सा
मालूम
करण
बदल
ay@@
=
Court
4@@
सेट
young
over@@
ग्@@
वेबसाइट
Is
नदी
activities
यी
special
written
ति
7@@
fire
server
देखने
ड़ा
thy
either
बातें
ot@@
वो
देगा
ा
समस्या
once
प्रगति
Now
1@@
भीतर
forth
ical
रखता
कांग्रेस
mercy
रे
ब्@@
example
निर्दिष्ट
जन्म
सन
market
सह@@
ans
शायद
डाल
soul
ies
ents
कमी
े
Mar@@
works
सक्षम
लाने
question
city
tic
तो@@
got
total
ad
तहत
डिस्क
प्रकृति
don
ds
authority
therein
near
हक़
command
जैसी
anything
सत्ता
List
प्रशिक्षण
Surely
खो@@
living
फाइल
bl@@
ph@@
tive
ढ@@
com@@
मिला
University
Hindu
पै@@
higher
सुनिश्चित
send
told
उचित
financial
play
Thus
फा@@
शन
पालन
website
understand
सहित
St@@
बातों
बाप
har@@
यु@@
Verily
विस्तार
बढ़
क्रिया
निर्@@
Pro@@
text
size
पन
THE
यर
el
पुनः
हित
द्@@
RRB
research
सार्वजनिक
लिखा
सके
मंदिर
लु@@
peace
यक़ीनन
General
H
ताओं
मुँह
tree
मामलों
जवाब
जिनमें
story
गा
turned
no@@
थ
verily
court
the@@
संसद
ks
goods
br@@
greater
art
स्व@@
बै@@
ड़ी
problem
आर@@
doing
ala
Minister
LRB
future
behind
क्स
ग्रामीण
किंतु
hands
related
computer
he@@
होगी।
technology
head
hath
messages
tax
eyes
Un@@
वर
सम्@@
गांधी
राज्यों
पश्चात
ऊर्जा
खाते
निर्यात
Select
With
ter@@
Ar@@
File
निजी
मुखर्जी
parts
why
टे
purpose
Open
हु@@
मुक्त
कार@@
ष@@
15
enter
संगठन
मांग
established
property
कार्य@@
एम
ंड@@
चे@@
soon
end@@
विवरण
20
foreign
oc@@
आर
सदस्यों
ator
revealed
साफ
व्य@@
डा
पिता
राम
major
ary
निर्धारण
ha
man@@
X
however
since
पूरे
institutions
guidance
खुद
संभव
start
देती
whatever
यां
रुप
ते@@
ay
राजा
6@@
सके।
changes
sense
sa@@
problems
महान
v
fully
mother
एँ
कोर्इ
security
गत
स्वतंत्रता
दिखाई
sign
En@@
really
mo@@
सर@@
bank
शहर
कर्ता
ऋ@@
Whether
Cannot
्@@
si@@
Error
ि@@
ev@@
इनमें
ally
pay
result
आयतों
task
believed
ि
क्ष@@
N
प्रकाश
Th@@
considered
inter@@
स्रोत
ur
कानून
plant
पहचान
often
औद्योगिक
scheme
force
ऊण्श्छ्ष्
गई।
External
cost
hi
House
low
कहो
remember
रक्षा
व्यक्तियों
vi@@
mail
movement
opens
उपकरण
pre@@
ten
needs
students
बदले
America
bo@@
8@@
subject
व्यापक
युक्त
ड़े
ढंग
प्रकट
Us
out@@
share
mis@@
हिन्दी
months
office
समा@@
fl@@
early
thus
सफल
ise
ma
पुस्तक
आपकी
occasion
जाएगा।
Let
ways
वजह
चले
ud@@
नगर
कला
5@@
saying
प्रभावित
blood
single
ध
Ad@@
community
ll
कारी
राय
आयात
ing@@
ons
जे
बयान
Parliament
dec@@
भाव
z
party
संरचना
सारी
रखना
school
ou@@
भारी
बन्दों
बुरा
बहु@@
everything
role
थीं
appointed
str@@
individual
Development
चला
गति
ob@@
village
all@@
close
progress
ver@@
ार@@
class
none
फै@@
ep@@
वास्तविक
श्@@
However
मान@@
मों
Information
alone
terms
ा@@
21
ी।
छोटी
complete
शख्स
natural
à¤@@
पुनर्@@
Committee
पक्ष
निकल
Fire
उत्@@
पुरस्कार
रख
basis
air
PRESIDENT
paid
अवश्य
बा
प्रकाशित
प्रणब
Pradesh
करना।
हूँ।
पर्याप्त
यद्यपि
rest
चौ@@
कहना
contact
स्कूल
मंत्री
disease
एस@@
आई@@
श्रेणीः@@
ु@@
चुकी
22
शक
प्रमाणपत्र
बद@@
passed
management
least
दों
ऋ
ii
Mukherjee
trade
मंत्रालय
दूसरा
12@@
कवि
persons
रहो
e.
प्रस्ताव
जल्दी
रचना
फे@@
reason
ble
इन्@@
energy
Such
भविष्य
उत्पाद
आधुनिक
try
gives
nic
पाने
source
सीधे
गुण
till
effect
सुविधा
po@@
रिपोर्ट
lot
under@@
ying
जोड़ें
write
सफलता
ed@@
सुरक्षित
seek
wife
freedom
taking
press
सन्
ors
लू@@
तः
30
Or
एक्स
makes
शब्दों
do@@
ind@@
आकाश
condition
Union
बे
वन
creation
31
Bengal
व्यवहार
neither
ंट
19@@
De@@
उपस्थित
आख़िरत
50
space
short
Add
strong
करोड़
केंद्रीय
Even
meet
Man@@
हासिल
मै
बंगाल
Constitution
Gandhi
general
पुर
ah
religious
to@@
ants
गैर
संदर्भ
angels
जाए।
एन@@
टों
बोर्ड
क़
Department
care
ू@@
matters
particular
हे
धीरे
कंप्यूटर
अता
res
घटना
आता
निकट
पति
duty
page
coming
क्रम
Muslims
ability
भावना
सेवाओं
Dis@@
बने
ता।
आशा
function
अगले
conditions
मित्र
खुलती
लर
international
आपका
23
धि@@
Di@@
wish
Not
आते
writing
पेश
खु@@
developed
deny
योगदान
]
tell
मेल
सेना
संसाधन
नेटवर्क
books
ज्@@
तें
building
ं।
जरूरी
increase
past
ne@@
राजनीतिक
color
cor@@
लिया।
दिवस
sea
विंडों
res@@
सर्@@
बिल्कुल
specified
लेखा
loss
उपधारा
sha@@
ets
manner
according
mode
मर
खि@@
saw
million
su@@
सच्चे
धा@@
कृत
pe@@
Com@@
ite
बनी
0@@
शेष
छोड़कर
access
literature
ang@@
चिकित्सा
cr@@
तर
ती@@
search
six
पं@@
भोजन
i.
दल
ling
लागत
network
फ़
डाला
था@@
पूंजी
आवेदन
sub-section
century
परीक्षा
allowed
प्राकृतिक
लेना
वर्णन
पट्टी
dr@@
कार्@@
पश्चिम
capacity
ग़@@
kept
enough
Why
शी
IN@@
शीघ्र
वार
X@@
user
mankind
Ministry
der
Pranab
operation
Merciful
provisions
शैतान
training
दर@@
संस्कृत
समझते
mar@@
तरीके
seven
एशिया
सख्त
ंस
ak
ast@@
ट्स
एल
ज़रूर
व्यक्त
आपने
इबराहीम
स्वा@@
cl@@
जिला
hi@@
डेटा
निर्मित
region
says
अधिकांश
संसार
गुना
culture
structure
w
चयन
credit
योग
population
संस्कृति
Bank
ब्रिटिश
अवस्था
जाति
ill@@
ful
hold
doubt
करनेवालों
ish@@
मार
लन
आत्मा
ईश्वर
Council
almost
फल
torment
मं@@
Muslim
resources
ai
उन्हीं
ry
करनी
followed
आर्@@
बू@@
छोटा
programme
From
failed
बर्@@
poor
ma@@
महत्व
personal
स्त@@
मौजूदा
लता
Have
लोड
Sabha
hard
बधाई
lost
Asia
जहन्नुम
ves
केन्द्र
Mo@@
modern
wealth
rule
दशा
ground
raised
हा
ियों
ess
25
Use
Prophet
gr@@
स्त
rights
कू@@
पड़ा
निधि
मिलता
member
add
प्रभावी
dead
पुरुष
निम्नलिखित
27
रखी
People
बैठक
clause
कार्यालय
ial
products
aw@@
ked
month
witness
ंत
आकाशों
धार्मिक
स्ट
active
forward
हों।
ंक
एम@@
स्थल
price
so@@
woman
गे@@
स्थायी
hear
district
मुद्रा
कॉ@@
han
ty
वैज्ञानिक
run
Category
समुदाय
वीडियो
ant@@
आती
character
गलत
brother
बैठे
अंग्रेजी
ची@@
ट्@@
experience
Are
actually
room
High
भि@@
डो@@
accept
continue
disbelieve
ना।
visit
righteous
ir
लै@@
stage
मय
benefit
U
16
खर्च
िक
speak
test
चर्चा
मुसलमानों
science
अपेक्षा
विरुद्ध
रखो
नये
top
hope
private
half
संस्थानों
रहती
बना@@
cases
lies
industrial
[
प्रमाण
अत्यंत
entire
ची
चित्र
$
forms
eat
बाज़
bi@@
सों
ऑफ
लघु
आयोग
कदम
decided
खड़े
मू@@
इन@@
दू@@
तुलना
सम्मान
ments
विचारों
देखो
astray
पुलिस
सदैव
guide
ses
ka
il
लिंग
बनाना
संकेत
पहुँचा
28
ery
river
सीमित
Save
ding
अध्यक्ष
आयोजित
शैली
छि@@
ho@@
पहुंच
earlier
धु@@
places
9@@
att@@
हालत
गए।
नमाज़
ens
वों
news
आंदोलन
ँ
दर्शन
ग़रज़
गुणवत्ता
मानते
previous
मात्र
feel
अंदर
ग्रहण
शुल्क
स्ट@@
कठिन
रह@@
ics
big
gl@@
लग@@
केन्द्रीय
लग
स्वामी
पांच
G
17@@
Sanskrit
disbelievers
material
मालिक
बं@@
रखें
ill
प्रदर्शन
lead
विवाह
report
ot
Section
क्षमा
Republic
difficult
त्रि@@
sts
हिदायत
real
guided
खोलें
रहना
व्यक्तिगत
बताया
rural
below
प्राप्ति
कार्यों
god
easy
मार्@@
निशानियाँ
letter
मन@@
भेज
वान
Q@@
receive
रखे
Co@@
provides
promise
ै@@
कुंजी
efforts
fi@@
दो@@
ement
sed
अर्@@
Dr.
प्रदर्शित
Failed
रोज़ी
सात
tri@@
खाली
रु
Im@@
wrote
For@@
outside
अनुच्छेद
अधिकतर
sound
prepared
शु@@
ice
अनिवार्य
नियत
ently
पार
रक्त
खाना
spread
खोल
उठा
देंगे
poet
front
ore
ties
study
परा@@
ari
निकाल
ship
Comment
Su@@
तुमपर
demand
rich
device
spirit
provision
desire
Lo
संपत्ति
प्रोग्राम
ages
ving
referred
प्राचीन
हृदय
ही@@
दान
include
.@@
तियों
समारोह
इनके
accepted
संगीत
निर्भर
bear
करा@@
ure
pi@@
ge
investment
View
groups
फो@@
move
happy
firm
morning
रोजगार
हालाँकि
die
विशाल
ra
ali
दस
नसीहत
sing
१
दन
शांति
होंगे।
ंगे
वित्त
शो@@
मिलने
ख़बर
अधिकतम
ST@@
संस्था
हस्ताक्षर
साधारण
जीवित
payment
त्मक
रोक
हीन
South
मह@@
राज
environment
names
असफल
du@@
अन्@@
शे@@
gi@@
economy
born
Africa
ari@@
निक
खाने
ering
produce
remain
बाल
instead
temple
पसंद
नाथ
बनाकर
els
इतनी
besides
हाँ
decision
ऊ@@
success
हुई।
flow
चलते
prayer
physical
पहला
उल्लेख
takes
published
sun
पहुँच
पूर्वक
situation
na
पथ
ani
Hell
ash@@
14
ta
विधान
सिस्टम
relating
strength
check
बुरी
अधिकारियों
ded
issue
नीय
formed
अनुप्रयोग
version
वस्तुओं
संरक्षण
तेजी
हिन्दू
gone
नर
लाया
विरोध
à¤¾à¤@@
across
au@@
reach
values
अंग
10@@
पीठ
क़ुरान
जिनका
RE@@
Public
थीं।
लाते
friends
हार
पाक
caused
unbelievers
छा@@
रहे।
बावजूद
Their
सम्मेलन
gu@@
ow@@
भला
ऑ@@
करो।
carried
कहानी
यें
महिला
सम्बन्ध
रहेंगे
concerned
100
लगाया
पद्धति
Sub@@
wise
inc@@
प्रयुक्त
stand
२
servants
ub@@
दुर्@@
Evolution
leaders
फ्@@
पड़ता
patient
पर्@@
समाधान
acc@@
स्वरूप
While
तकनीकी
fall
ंगी
रख@@
Hereafter
संशोधन
Mon@@
पड़
वृ@@
heard
आयु
rather
सबको
aj@@
began
third
friend
बचा
े।
वीं
सहेजें
birth
\
ending
sky
Of
reached
खा
ality
लिखने
Har@@
ats
खे@@
दिलों
प्रतीक
becomes
जों
एक@@
giving
क्लिक
सलाह
West
सम्मिलित
शक़
लाइन
document
महीने
तुममें
चर
Commission
उपयुक्त
plus
purposes
especially
विस्तृत
lower
मिट्टी
व्यय
Pharaoh
Ma@@
method
q
लेखक
अवैध
answer
Institute
याँ
placed
मजबूत
बिजली
exchange
record
घोषणा
de
करनेवाला
bar@@
एन
मनो@@
कहेंगे
tu@@
relations
ins
समझा
कविता
copy
गी@@
plan
V
लेता
Sam@@
wanted
cre@@
माता
निया
wide
कौ@@
देखें
गांव
श्रेणी
evidence
whoever
charge
ensure
rain
न्याय
issued
ised
quite
सै@@
ain@@
trans@@
शताब्दी
सामान
idea
United
सच
ze
film
करेंगे।
मार्च
दीन
ize
built
rules
white
lives
शून्य
ian
न्त
अर्थव्यवस्था
sur@@
नियों
इच्छा
रिया
ब्याज
्र@@
प्रो@@
समुद्र
सिर
चारों
s&apos;
एल@@
ci@@
option
style
उद्@@
निम्न
program
object
During
खाद्य
संघर्ष
अति@@
global
sw@@
belongs
पदार्थ
हम@@
हानि
post
नियमित
March
कारों
दृष्टिकोण
returned
महसूस
झा@@
opportunity
effective
आसान
शी@@
Board
प्रशासन
trust
चा
usually
tic@@
स्क्रीन
activity
Ac@@
specific
beyond
हद
details
her@@
प्रत्यक्ष
heaven
states
felt
महिलाओं
आख़िर
ology
पंचांग
गिरोह
go@@
original
har
कितने
नेवाला
ढ़@@
release
April
directory
्य
सकता।
मार्गदर्शन
Service
co
बनाएँ
नाटक
ge@@
bar
probably
video
या।
increased
बिल
कर्@@
ID
cut
दिये
झुठलाया
ators
DE@@
treatment
issues
बदलें
approach
परिषद
चलता
तत्व
ीन
एवोल्यूशन
Project
पत्नी
न।
पू@@
status
त्र@@
me@@
अंतरराष्ट्रीय
importance
goes
item
जानी
pass
justice
understanding
CD
भु@@
लगी
responsible
ile
event
मिटाएँ
पार्टी
ru@@
निर्देशिका
ered
we@@
powers
नता
Quran
generally
AN@@
min@@
साइ@@
जू@@
सिद्ध
युग
नौ@@
INDIA
supported
वार्षिक
वातावरण
speech
तेल
सरल
32
ईसा
नियमों
ग्राम
इबादत
Israel
East
ell@@
Technology
हल
बीमा
स्त्री
हरगिज़
मिली
बद्ध
projects
बढ़ाने
कन
default
हर@@
हवा
हालांकि
13@@
तर्क
Which
द्र@@
ast
getting
remove
जीव
deal
ji
ade
ago
दिखा@@
IC@@
bu@@
अफ्रीका
मतलब
बनाई
सामना
खड़ा
oo@@
simple
गये।
Will
Search
behalf
प्रधान
facilities
भली
similar
बुद्धि
चलो
fight
va
घु@@
आय@@
programmes
स्टे@@
ished
लेखन
providing
ard
तय
खुशी
पित
fast
नामक
सांस्कृतिक
वायदा
मुस्लिम
ज़ि@@
कर्मचारियों
boy
समक्ष
certificate
सन्@@
पश्चिमी
og@@
करनेवाले
cast
वितरण
agreement
हिसाब
ches
plants
basic
समस्याओं
direct
Folder
May
परस्पर
Message
ॅ@@
des@@
क्षेत्रीय
अक्सर
दर्@@
war@@
password
लिखित
Me
vision
लिख
ig@@
इन्हें
destroyed
existence
legal
ancient
तम
अप्रैल
परीक्षण
accounts
Where
अपील
running
Sa@@
प्रे@@
existing
produced
ash
उम्मीद
ये@@
उत्तम
Many
दी।
गुनाह
loan
beginning
युवा
ारा
स्था@@
सदन
धी
अर@@
languages
note
tried
lie
गे
Therefore
continued
चरण
poetry
चू@@
K
Kar@@
knew
display
ॉ@@
विद्युत
Res@@
rivers
काव्य
ंड
ंगा
न्यू@@
generation
Create
आपस
प्रसिद्ध
parties
प्रधानमंत्री
कितनी
learning
scale
तौबा
बता
सिद्धांत
गंभीर
eight
tor@@
ms
कोड
practice
पुराने
deep
pur
job
शा
setting
पैग़म्बर
fixed
मोड
पंक्ति
est@@
translation
shown
15@@
प्रसन्नता
Resurrection
ati
जोड़
ख़ास
निरंतर
International
गणराज्य
yourselves
नेता
mark
उपाय
सुन
ama
transfer
क़्@@
संस्करण
ke
देव
जिनकी
verses
जिसको
पढ़ने
पाए
बैंकों
serve
भेजे
lines
employment
सज़ा
लियों
प्रयासों
round
लगाने
oil
normal
Pre@@
acy
Only
तिथि
code
तरफ़
ft
gh@@
mental
optional
मॉ@@
te
देकर
banks
Europe
Raj@@
कार्रवाई
la
चीन
इस्लाम
आत्म@@
tur@@
systems
memory
bit
mer@@
Per@@
ps
Qu@@
bad
industries
साधन
यूरोप
कठोर
पाकिस्तान
ines
निशानी
html
सां@@
दास
होनी
cultural
regard
संपूर्ण
उपचार
दारी
सक@@
थो@@
World
बर
ati@@
भय
hal@@
connection
statement
जोर
मिलती
देश@@
जै@@
मीटर
ste@@
पूज्य
ends
tor
घरों
अत्यधिक
Wise
os
विन्यास
central
ध्वनि
फेर
उन्@@
शीर्षक
crore
उसपर
parents
ारों
यू
cont@@
hundred
साफ़
वायु
unit
Ab@@
aware
painful
स्वतंत्र
looking
Calcutta
एफ
ज़ुल्म
चुनाव
limited
महत्त्वपूर्ण
तेरे
ann@@
ath@@
carry
software
ठिकाना
नेवाले
वेतन
aries
तल
दावा
numbers
11@@
त्व
cur@@
व्या@@
अद्यतन
नियुक्त
जाँच
eg@@
माँ
वें
00
व्यवसाय
st
समाचार
Abraham
नें
संचार
रुपये
Supreme
Chief
गं@@
cha@@
स्थ@@
session
Pakistan
talk
Yet
मिलकर
assessment
नागरिक
particularly
सर्व@@
apply
ban@@
दस्तावेज
अभिलेख
करेगा।
met
pur@@
शिकायत
contains
तारीख
folk
successful
ach@@
अल्@@
गुमराही
animals
hor@@
Sha@@
कल्पना
added
mountains
wh@@
अनुवाद
ideas
content
रकम
IT
thousand
प्रेरित
connected
णा@@
Po@@
fied
अंतर
शख़्श
changed
न्यूनतम
step
ass@@
format
33
संस्थाओं
यो
सौ@@
measure
पेज
infrastructure
Truth
paper
product
od@@
हिंदू
Be@@
बढ़ावा
gods
cal@@
direction
मानक
Go
भागों
ances
ously
बुराई
प्रायः
ल्स
दिखाया
units
pol@@
विद्यार्थियों
कार्ड
sufficient
हाथों
presence
पस
टिंग
भी@@
notice
रद्द
link
uses
gar@@
famous
tw@@
बिक्री
सत्र
देखभाल
responsibility
खूब
Tr@@
ख़ा@@
bed
col@@
झूठ
टै@@
सवाल
calendar
perhaps
denied
Well
claim
ara
Mal@@
तार
स्वागत
सप्ताह
minus
थोड़ा
af@@
सार
पात्र
eng@@
खुले
वादा
वेब
तं@@
IT@@
disc
इतने
लाई
revelations
form@@
moon
आदर्श
spiritual
grant
खेती
workers
जनवरी
agricultural
उपयोक्ता
police
पकड़
24
ठ
लगा@@
article
pen@@
अज्ञात
Bar@@
base
डे
pa@@
Sar@@
Bi@@
fr@@
फू@@
please
ker
गतिविधियों
tical
शुभकामनाएं
नव@@
ug@@
जाये
डरते
essential
sl@@
les
पुस्तिका
ization
unless
fin@@
निगम
Unable
regular
ely
break
उठा@@
ै
int@@
आं@@
विवाद
गवाह
डाटा
Prime
faces
टू@@
कराने
à¥à¤@@
Move
Ram@@
पुत्र
ion
City
रास्ता
लाना
भरोसा
S.
à¤¿à¤@@
र्ड
hand@@
ping
stone
आयतें
kherjee
Google
जाकर
Centre
शीर्ष
music
hours
sight
फ़ि@@
proper
Scheme
60
इत्यादि
फु@@
range
विफल
anyone
sin
ON
types
consider
table
standing
कमांड
मूल्यांकन
mentioned
बॉ@@
गंगा
Islam
दूध
मौ@@
ited
Go@@
कानूनी
build
कीमत
Education
URL
आंतरिक
उम्र
gre@@
बनाते
एफ@@
भार
वैश्विक
मानसिक
बां@@
स्थानों
Pr@@
saved
यता
भलाई
तभी
beautiful
iting
तुझे
मौसम
ज़ालिम
पर्यावरण
associated
मानो
पह@@
चो@@
mal@@
te@@
pranabmukherjee.nic.in
Every
सब@@
pranabm
कान
भो@@
ali@@
Image
ata
बह@@
Remove
़@@
मुंबई
meaning
माबूद
Cl@@
ौ@@
Le@@
दूसरों
Delete
2000
wishes
January
कूटशब्द
assistance
खास
कड़ी
गै@@
चीज
wa@@
बन्द
ute
बढ़कर
II
ys
TO
Mumbai
वचन
स्मृति
thereof
potential
गुप्त
concerning
Last
मेहरबान
३
opened
सुबह
नष्ट
रास्ते
सुना
रो
चे
lakh
ग्रा@@
चाहिये
detail
inside
चेतना
female
जान@@
देखकर
सोच
स्त्रियों
ns
ious
advice
can@@
पूजा
तमाम
ada
इंडिया
sen@@
विदेश
अनुसरण
दयावान
learn
लड़के
forgiveness
मानी
लना
बातचीत
regarding
Pl@@
मर्@@
घरेलू
addition
j
else
गीत
दूरी
शों
North
ष्ट@@
अना@@
अर्थात
बन्दगी
ज़ा@@
W
ear@@
attention
ज्ञापन
बार@@
कार्यक्रमों
संभावना
मां
णों
chastisement
companies
Mad@@
दंड
eye
लैंड
हुए।
घ
feet
longer
ready
immediately
judge
छु@@
ick@@
Here
King
forgive
institution
spend
णी
Me@@
nations
forces
हिंदी
expression
दायित्व
cap@@
त्र
अस्तित्व
पाई
फ़ैसला
Sur@@
जर
separate
ching
Enter
covered
obey
granted
location
्य@@
ते।
ide
डॉ
stay
इकाई
our@@
प्रार्थना
यत
Bo@@
named
बढ@@
धा
measures
कर्मचारी
झु@@
opinion
balance
निर्वाचन
Satan
प्रोत्साहन
weather
तट
लोगो
ब्र@@
सीधा
gets
स्वतः
ज़ा
cell
Right
ber
अवि@@
title
sc@@
अल@@
doers
unjust
mighty
Forgiving
medical
अंतर्राष्ट्रीय
ग्रस्त
offer
Enable
प्राथमिक
ग्र@@
former
ched
कथा
संसाधनों
ended
उपयोगी
द्वार
नेतृत्व
जल@@
Edit
drink
cities
items
sk@@
बोले
विश्लेषण
कहाँ
highest
भे@@
चाल
AR@@
popular
administration
कल@@
हट
५
श्री@@
val@@
promised
ख्याल
ख़र्च
ik@@
alism
Set
लगातार
तिक
comp@@
राजनैतिक
reading
०
super@@
ring
ारी
drive
संचालन
मद
Krishna
Mr.
परिस्थितियों
अंतर्@@
System
Its
black
species
चलने
Sp@@
final
sides
someone
ten@@
कहता
town
सूर्य
नूह
Nehru
pleasure
निहित
सहकारी
३@@
लिंक
16@@
मौत
वर्ती
40
क़सम
milk
किनारे
houses
laws
ain
पक@@
नेहरू
labour
Thou
dem@@
घा@@
benefits
develop
ri
ग़ालिब
कक्ष
citizens
यक़ीनी
लाइ@@
शाखा
में@@
करार
बीमारी
समस्त
struggle
पे
फसल
Children
ग्राहक
संबंधों
ष
तन
December
प्रभु
mean
sal@@
ईमानदारों
entered
ars
Other
IS@@
मुसलमान
Ap@@
taste
पेट
उप
operations
राम@@
देवी
tional
det@@
ey@@
As@@
वर@@
Am@@
ण्ड
laid
अपराध
मशीन
game
तेज
संग्रह
खुली
सेवाएं
dly
ath
uc@@
धान
दयालुता
ारे
उपबंध
लं@@
व्@@
A.
sins
तरीका
secure
cells
त्
क्ति
centre
औ@@
फोन
scientific
AT@@
दस्तावेज़
Paradise
enti@@
acts
Min@@
dy
fac@@
चुने
ably
सौ
Time
देखता
रेखा
प्रारूप
Car@@
Officer
कम्@@
ः@@
नक़ल
सिवाय
मर@@
US
करीब
ण्@@
box
पूर्वी
प्रशंसा
grow
weight
trees
Sal@@
und@@
धर्म@@
हैंः
favour
तथ्य
exists
भूल
किसानों
ire
length
हजार
बता@@
net
वहीं
leading
भी।
severe
pan@@
supply
completed
gardens
ged
लिखी
middle
भाषण
मई
करा
बाग़
बोल
sions
select
wait
cover
महामहिम
बनने
tly
फैसला
aya
बुनियादी
दुआ
farmers
प्रयोजनों
ंक@@
Col@@
लौट
मीडिया
Research
largest
देर
conduct
नो
Gr@@
sum
ER@@
टिक
wills
stories
पत्थर
Messengers
Indians
नयी
उत्पादों
साबित
भौतिक
protection
ner
à¤ª@@
विषयों
2014
करे।
appropriate
Bombay
green
Cha@@
uk@@
opportunities
sons
hour
उपन्यास
वर्षा
गों
ency
लॉ@@
सर्वोच्च
significant
hearing
कितना
सकें
ऐतिहासिक
सजदा
पश्चात्
कौशल
refers
कल्याण
क्षण
info
ved
agriculture
ward
हालॉकि
According
violence
बढ़ा
ee
effort
निर्धारिती
sion
भाँति
manifest
बेटे
लक्षण
आपूर्ति
आध्यात्मिक
SI@@
मुख
प्रतीक्षा
९
रत
lived
Kashmir
steps
employees
शाह
क्र@@
etc.
tion@@
घड़ी
टें
assessee
ect
limit
थि@@
partners
एं@@
week
results
निर्देश
उद्योगों
काफ़ी
directly
रहेगा
23@@
बन@@
uni@@
मुझसे
उठाने
किंग
गार
२@@
shows
मामला
ths
met@@
एकल
भाव@@
ular
पड़ी
prescribed
अधिकारों
ष्ट
जहन्नम
praise
difference
ऑनलाइन
लेख
performance
रहा।
भाषाओं
harm
Kal@@
न्द
सुंदर
सच्चा
ES
सरदार
शारीरिक
पान
à¤¸@@
एगा
लौ@@
October
growing
external
den@@
Did
ements
road
ass
Gandhiji
played
लॉग
iness
पंजाब
work@@
गठन
entry
श्रम
China
official
बिलकुल
Assembly
questions
der@@
कलकत्ता
helped
जून
row
Under
जाओगे
सर्वाधिक
पूर्व@@
भगवान
includes
14@@
iii
straight
फिरऔन
अरब
north
रहें
Governor
site
र्म
शेयर
thinking
मुक़ाबले
processing
प्रतीत
fa@@
root
आग्रह
आयोजन
ष्@@
दोबारा
अक्षम
presented
खी
कीय
extent
died
उद्यम
चाहिये।
जुड़े
ual
सूक्ष्म
चिह्न
बटन
SE@@
ah@@
un
democracy
useful
rise
पूछा
enemy
September
causes
powerful
विभाजन
allow
पॉ@@
युक्ति
अर्थात्
appeal
kar
Tamil
अगला
protect
fields
fe@@
ख़ूब
न्स
औसत
घंटे
seems
जमीन
लोक@@
Commissioner
संकल्प
हमसे
looked
मिले
सामर्थ्य
अकबर
निय@@
Address
Type
धारण
उच्चतम
साथी
stated
एकता
functions
विरोधी
अनुकूल
organisation
needed
खरीद
जितना
मिशन
cooperation
anti@@
विविध
Tri@@
पों
standard
leader
CO@@
ren@@
likely
हटा
voice
appear
views
ately
June
वैसे
à¥à¤@@
जनसंख्या
पक
बन्@@
अभियान
storage
Because
Management
friendly
won
defined
Home
गयी।
अगस्त
leaves
प्रचार
वासी
ication
आसानी
divided
Dev@@
earned
रहमत
events
लोकतंत्र
bul@@
अनुमान
percent
surface
ण्ड@@
लेंगे
उपा@@
द्वि@@
वृक्ष
implementation
officers
राज्य@@
मस्तिष्क
station
Trans@@
घटनाओं
आना
rejected
heavy
विजय
विपरीत
Hindus
इसको
eness
ड़ा@@
contribution
व्यव@@
आवाज़
Tax
अचानक
गर्@@
funds
tim@@
sometimes
घोषित
नियंत्रित
average
bound
चालू
Bal@@
क्रा@@
hon@@
August
images
ically
रानी
इ
involved
mat@@
south
fish
बदलाव
Unto
fair
ising
रता
permission
गवाही
expenditure
क्रि@@
committed
AL
क़ुरआन
machine
विशेषकर
adopted
male
टाइ@@
पहल
fund
à¤¾
संदेह
७
उपभोक्ता
दिखा
लय
वत
८
परिवहन
influence
November
media
गृह
म्
भर@@
bro@@
serious
points
नबी
First
भ
अनुरूप
hell
समर्थित
जोखिम
relationship
trying
hu@@
ities
consciousness
26
कृ@@
शास्त्र
धित
रण
inv@@
located
Rec@@
सम्बन्धी
traditional
stop
ज़िन्दगी
क़ा@@
टने
empty
sa
दाखिल
सॉफ्टवेयर
कब
परियोजनाओं
board
गर
मार@@
जादू
ist@@
team
animal
ग्रे@@
पृथ्वी
नै@@
RA@@
ental
technical
ale
बाँ@@
मिनट
फी@@
recent
प्रयत्न
fathers
standards
ंद
fruit
भंडारण
enable
कनेक्शन
रस
मज़ा
६@@
ारि@@
Group
कदापि
wind
गर्इ
हिस्से
अन्ततः
प्रयोजन
ॉ
शै@@
truly
होता।
tradition
ships
amongst
Li@@
इन्कार
चीज़ों
गणना
नागरिकों
civil
marriage
ped
फिल्म
४
schemes
ological
बोझ
choose
pure
exp@@
इंटरनेट
Today
आनंद
Copy
धी@@
educational
folders
remained
में।
सारा
कीट
परामर्श
load
relation
कुफ्फ़ार
वास
डाउनलोड
टना
सो
Gu@@
तथापि
ning
Also
तयशुदा
भरे
बजाय
ढा@@
बदलने
ni@@
जाएगी।
skin
सागर
az@@
संवाद
villages
char@@
Sri
पृष्ठभूमि
output
Se@@
documents
comm@@
दें।
औऱ
collection
क़ियामत
दे।
लड़@@
तूने
जल्द
विद्यमान
परिवर्तित
बस्ती
trial
Lok
fore@@
fruits
थे@@
square
poems
twenty
stri@@
कट@@
response
atory
Inter@@
mu@@
join
ip@@
शुद्ध
compl@@
actions
feed
Punjab
सुविधाओं
fer@@
P.
दादा
दशक
पेड़
ज़रुर
card
जिनको
मास
aff@@
मैदान
गुरु
ER
दर्ज
ख़ुद
द्वीप
समाप्ति
ters
५@@
ऑडियो
जिनसे
ज्ञात
अन्दर
ीकरण
विनिर्दिष्ट
शं@@
मंडल
देख@@
knowing
तियां
पारित
chosen
Bha@@
ites
र्स
q@@
messengers
चार@@
settings
clearly
apart
Any
शिकार
Ne@@
removed
false
blind
divine
developing
कुफ़्र
परिणामस्वरूप
प्रभुत्वशाली
NAME
रै@@
शुरुआत
appointment
cy@@
Plan
सृजन
2015
मूल्यों
circumstances
कुरान
ingly
ढ़
संपादक
चीनी
additional
domestic
नेताओं
raise
ईमेल
Bill
लक
Start
मान्यता
नेकी
घाटे
interests
increasing
ler
model
AND
evening
visible
included
ard@@
यान
ized
relevant
ank@@
कां@@
‎@@
elements
portion
इनका
शैक्षिक
छह
वार@@
पोर्ट
described
instrument
American
extended
तरा@@
characters
Corporation
del@@
शुभ
Nay
पवित्र
medium
distance
तता
ram
भेजें
marked
draw
नोट
assets
ताएं
policies
मुक़र्रर
tidings
खिलाफ
pu@@
प्रतिनिधित्व
फ़ा@@
&apos;s
कारक
मध्य@@
अदा
प्रबंधक
establish
सरकारों
hy@@
verse
एका@@
deb@@
remote
एच@@
warm
officer
Can
Vis@@
unity
आमतौर
पाते
birds
wi@@
प्रिय
गुनाहों
रोगी
worked
अध्याय
gen@@
Policy
रहित
88
observed
त्व@@
एच
डॉ@@
dev@@
ver
moment
दोस्त
सन्तान
लोकप्रिय
माने
husband
fo@@
export
बारी
आकर
Send
ges
Islamic
larger
हवाई
cash
hidden
umb@@
bility
stra@@
ational
एक्@@
बारगाह
sol@@
कृति
lu@@
July
६
भावी
shape
जिले
messenger
भरी
temples
vo@@
आये
ists
पार@@
इकट्ठा
ina
ory
Tagore
जरिए
निदेशक
लूत
exist
धैर्य
army
Data
Knowing
Had
भागीदारी
संपादित
टो
era
ab
उठाए
distribution
प्ले@@
असमर्थ
Text
independent
variety
मन्@@
यल
Akbar
levels
स्टर
मुलाकात
अभिव्यक्ति
connect
चला@@
At@@
nine
खोलने
हरि@@
ज़िन्दा
cattle
हराम
शौ@@
म्ब@@
Mu@@
touch
अनुपात
27@@
amp@@
चलाने
wall
नज़र
mil@@
ज़ाहिर
aged
SAW
सीडी
संपादन
declared
improve
घटक
desires
निष्क्रिय
कार्यवाही
AL@@
लने
दुखद
अल
फाइ@@
स्थिर
procedure
Pat@@
bal@@
series
फ़ॉन्ट
sm@@
men@@
objective
poverty
sive
बों
bur@@
प्रारंभिक
tically
easily
ack
लिख@@
व्यावसायिक
कृष्ण
plain
independence
opening
सकें।
संगठनों
clean
लगते
reference
secret
expected
lay
joint
बिंदु
आसपास
ging
जाएं
crops
philosophy
आकर्षित
छूट
स्तंभ
Certificate
door
asa
्या@@
दौ@@
wisdom
दरमियान
ड्र@@
सुनने
ther@@
नवान्वेषण
beauty
प्रेषित
ini
प्रोत्साहित
आइ@@
ids
आवाज
सित
unique
उत्तरी
ned
सिं@@
रेल
उठाया
इनकी
पुरानी
advance
तत्वदर्शी
पंजीकरण
कैसा
primary
OR@@
औलाद
gold
पूर्ति
ures
बढ़ती
IN
ture
जनक
अंश
Chairman
1.@@
Char@@
टैब
suppl@@
आठ
कालीन
विधेयक
Yes
promote
youth
समझने
Shah
रुपए
रसूलों
ace
email
म्य
लंबे
sy@@
अग्र@@
Ram
लेट
चूंकि
बन्दे
aid
engaged
लाओ
जोड़ने
क्षमाशील
determined
प्रेरणा
greatest
Default
प्रतिक्रिया
plays
ourselves
Western
def@@
associate
ई।
commercial
अस्थायी
contain
लड़ाई
उत्तर@@
chi@@
तै@@
February
सांसारिक
विनिमय
19
DVD
achieve
Though
risk
स्पष्टीकरण
पुष्टि
gain
चन्द्र
प्रसार
मुश्किल
applications
संसदीय
फ़ाइलें
2013
छो@@
ishing
gn@@
करोगे
profit
host
tics
अनक़रीब
recompense
दूर@@
रेलवे
समझौता
forever
तीव्र
communication
ठा
construction
भूत
feeling
अदालत
iz@@
त्री
soil
उदार
exc@@
affairs
ser@@
द्व@@
प्राथमिकता
विश्व@@
conf@@
समझ@@
ज़ी
majority
शरीक
त्याग
पार्@@
णा
बख्शने
registered
safe
संलग्न
षण
novel
rel@@
आओ
District
ton
ट्रे@@
चुनौती
स्वीकृति
दीवार
returns
teacher
आँ@@
इंच
HTML
कश्मीर
2007
holding
नेक
ईमानवालों
काट
थोड़े
हटकर
sec@@
इस@@
hur@@
calls
safety
maximum
pleased
भेजने
कार्यान्वयन
European
Exchange
moral
पाल
देखना
merely
ap
ented
कटौती
लंबी
otherwise
प्रवाह
जेल
चौड़ाई
श्र@@
प्रबंध
लू
correct
क्यू@@
gra@@
ta@@
exercise
Provided
रोकने
ong
नैतिक
petitioner
टीम
mor@@
सहज
River
staff
पैग़म्बरों
विश्वविद्यालयों
दित
bill
ition
सलाम
20@@
मृ@@
Pan@@
~
रीति
consideration
Al
मंच
पसन्द
replied
शहरी
Conference
taught
धो@@
affected
0,0
throughout
Rama
सफेद
signed
happened
à¤@@
Free
सुख
ंगें
डु@@
ज़्यादा
screen
mass
डर@@
णीय
inner
Services
2008
CH@@
पोषण
बीज
lest
वंश
सुनता
बाकी
न्या@@
`
चन्द
2005
प्लगइन
जुलाई
songs
सब्र
स्वचालित
गोया
www
Be
families
truthful
bri@@
daily
रन
पल@@
port
रंग@@
चेतावनी
late
sti@@
moving
त्वचा
कह@@
proud
ce
Guru
प्रशासनिक
Office
मेंट
C.
ड़ियों
ber@@
अध्य@@
literary
belief
दोष
brings
SH@@
Lo@@
grace
ja
ING
cer@@
चिह्नित
पर्यटन
minimum
महात्मा
गू@@
completely
डों
reminder
दिखाने
समग्र
context
girl
contract
स्वाभाविक
किसान
जानने
कम@@
लिखे
bodies
ang
History
Qur
ened
Besides
जैव
गैस
सावधान
Income-tax
आवास
अर्थ@@
ls
सल
anda
टर@@
प्ला@@
LE@@
चक्र
Hour
arms
belong
सुझाव
km
आयुक्त
अवतरित
उ
धर
annual
अंतर@@
med
Kerala
remains
इसने
sectors
delete
द्र
विनष्ट
निरीक्षण
थोड़ी
लेन
west
अपेक्षित
माह
charges
राष्ट्र@@
offered
whosoever
spent
delivered
वॉ@@
branch
kill
introduced
garden
शाम
महाराष्ट्र
cu@@
पढ़ा
हरी
मना
निक@@
Date
Invalid
बुरे
Power
listen
speed
निगरानी
शोथ
fine
Display
जमा@@
mainly
सुनते
dra@@
समृद्ध
aging
glad
वैध
दर्द
तुरंत
ऊ
design
नजर
उन्होने
bas@@
enc@@
inf@@
ening
Since
Bengali
osis
देन
सतह
फ़रिश्ते
सदा
खो
परमाणु
एकमात्र
honour
learned
साम्राज्य
author
anti
Make
options
72
Peace
drawn
सबके
ination
Account
योजनाओं
प्रकाशन
Noah
मुद्दों
seed
ज़रा
master
महल
अन्यथा
journey
Each
आराम
enjoy
log
गो
दैनिक
वर्गों
प्रचलित
keeping
por@@
हार@@
समीक्षा
description
attack
लिए।
अंक
plugin
80
mutual
pressure
Path
killed
fil@@
sought
Op@@
अंतरण
मानवीय
Mahatma
2006
डाले
ium
रॉ@@
बनाता
सर्वोत्तम
ess@@
डिंग
मध्यम
teachers
बाह्य
waste
समर्पित
excellent
दोनो
insects
अति
ily
accordance
tha
EN@@
विभाजित
ut
न्यायाधीश
खुला
चली
सर्वेक्षण
डिफ़ॉल्ट
Shi@@
Ra@@
श्वर
wherein
request
सैनिक
शुरु
kinds
perform
Would
ff@@
लिन
निवास
proved
prevent
ब्रा@@
im
sale
होम
Ob@@
selection
stream
generations
military
focus
ड़ना
शिखर
forest
button
पत्रों
degree
खराब
डेस्कटॉप
dust
केरल
mouth
shares
reject
मानों
ंः
speci@@
लती
ue
suitable
बल@@
ign@@
AC@@
Import
articles
joined
हू@@
मुसीबत
picture
रौशन
ane
expressed
Color
dispute
नुकसान
उपस्थिति
बच्चा
mention
filled
fy
ita
सुदृढ़
स्वस्थ
ल्ड
1st
cat@@
Both
शील
reality
BC
ज्ञा@@
extend
काम@@
मुख@@
मारे
ple
Chandra
कोशिका
ले।
installed
आतंकवाद
शक्तियों
मैने
studies
आउट
til@@
height
Mighty
itor
दिखाता
ys@@
खे
Language
daughter
guilty
जन्नत
Check
amb@@
La@@
Maharashtra
positive
अंग@@
Next
कंपनियों
कर्म@@
à¤°@@
सड़क
figure
practices
Click
लगा।
गी।
equ@@
reply
turns
ky
Or@@
मुक्ति
Finance
ven@@
खत्म
सौर
भरा
UR@@
प्रतिष्ठित
ईमानदार
शहरों
No@@
follows
ex
ail@@
गुजरात
web
चैनल
हत्या
vast
यंत्र
सिविल
न्याय@@
internal
हिकमत
destination
कन्@@
चित
audio
गिर
jo@@
prices
highly
मकान
विक
आहार
स्थ
abroad
ज़े@@
dry
ref@@
लेखा@@
Gardens
MA@@
El@@
फ़िल्म
om
ables
बाबू
rer
sil@@
Excellency
अभिप्रेत
contacts
mel@@
यूँ
तकनीक
seem
उन्नत
व्याख्या
गुज़र
England
तत्@@
लिमिटेड
amp
कही
परिचय
कला@@
valid
पालने
moved
४@@
passing
delivery
अभाव
विमान
disbelieved
नीतियों
सना
ric@@
राजस्थान
ential
दि
हरे
pattern
लित
agreed
IP@@
गिर@@
Ban@@
warn
टल
treated
बोस
Des@@
पूर्वावलोकन
शत्रु
examination
पढ़
ti
38
critical
IS
academic
diseases
ans@@
eli@@
AN
Life
कमजोर
पड़@@
दारों
Contact
मिलियन
जाय@@
नियुक्ति
ears
केट
schools
stock
शिक्षक
ric
avoid
element
हन
ose
स्पे@@
मिक
pain
lo
minutes
नेवालों
क्त
ulation
Great
सत्यापन
हार्दिक
Number
कराया
department
फरवरी
ices
जटिल
iv@@
पौ@@
College
बेहिश्त
seized
yourself
चिंता
married
प्राधिकारी
प्रविष्टि
bra@@
अनुसूचित
methods
cold
Pal@@
समझता
सम्पूर्ण
क्रो@@
fication
ती।
अनुग्रह
hu
tool
भले
fill
त्रुटिः
ट्रा@@
Two
सेटिंग
निष्पादन
गुण@@
regions
तस्वीर
ective
target
blessings
tra
finance
सोचा
maintain
एन्@@
मिलते
theme
परंपरा
मछली
changing
माइ@@
दबाव
चेहरे
stood
नः
घात
काओं
beings
sel@@
joy
भेंट
crop
resource
launched
wants
authorities
अनुरोध
परिभाषित
झो@@
tain
although
destroy
दबा@@
ट्र@@
hide
ected
Internet
ंच@@
तया
SA@@
81
background
ours
धार
मोबाइल
कल्@@
urban
myself
देखे
PO@@
Em@@
wronged
chief
ाइ@@
Among
ंच
bone
राज्यपाल
प्रावधान
किस्म
भाग@@
requirements
innovation
complex
column
Mag@@
sections
नल
enabled
suffer
सीधी
lock
कुशल
Science
आक्रमण
Change
प्रतिनिधि
लकर
अध@@
क्षति
proof
चुना
dark
creating
principles
ust
विपणन
सदी
सरकशी
संबद्ध
Page
reasons
Si@@
refuge
200
नेपाल
त्य@@
ए।
organization
यक
छात्रों
राजधानी
Nor@@
नौकरी
orders
वो@@
east
darkness
planning
greetings
seeing
gs
Explanation
नि
rates
फ़्@@
खड़ी
संध्या
URI
पौधों
dated
seeking
Gujarat
आजादी
prosperity
transport
प्रान्त
happen
confidence
Unknown
समझौते
Financial
हत
सकाः
श्रृंखला
अनुदान
prof@@
volume
width
Maha@@
low@@
Bh@@
2001
फ़िरऔन
Company
goal
Joseph
governance
ज़ी@@
गा।
assigned
दगी
क्टर
map
M.
यूसुफ
पर्वत
successfully
नॉ@@
Ver@@
Work
समूहों
Remember
htm
poem
ठोस
souls
guard
gate
उद्घाटन
उल@@
initiatives
द्ध
हरा@@
वाई
ड्@@
बचा@@
विशेषता
वर्ण@@
तियाँ
भू
करे@@
inspired
Before
channel
टियों
failure
atha
burning
खान
क्स@@
inal
शर@@
latter
रहमान
पहाड़
देवता
आवश्यकताओं
ster
patience
insurance
वां
suffering
गहरी
asc@@
लीय
क़िस्म
संकट
Khan
air@@
उन@@
travel
pal@@
Nepal
व्यस्त
ena
ink
pres@@
About
caste
समुद्री
आरम्भ
फा
lab@@
औरतों
warner
बढ़ा@@
import
bles
उत्कृष्ट
रहेंगे।
निकाला
fresh
गुमराह
individuals
कुमार
minister
trav@@
अस@@
तलाश
online
सुभाष
पुकार@@
समृद्धि
दया
मक
पाठ्यक्रम
Don
tation
Rajya
Pur@@
ख्वाह
जायेगा
instance
sort
आश्चर्य
welfare
राजनीति
निष्@@
submitted
नुसार
७@@
van@@
Programme
carrying
lin@@
जीत
string
चरित्र
writer
नत
Pres@@
drop
दाख़िल
fell
बढ़@@
aspects
ंग्@@
संक्रमण
उतना
kingdom
ठा@@
टुकड़े
Rajasthan
Special
ve@@
sor@@
लेती
features
500
फूल
forget
payable
recorded
77
87
चाह@@
कॉल
असर
esh
डरो
हितों
rent
जिम्मेदारी
namely
साझा
letters
No.
contained
देव@@
asset
Cor@@
factors
गढ़
नहरें
heat
कारबार
e-@@
ङ@@
editor
पट्@@
mission
71
centres
’@@
भंग
warning
रिक
खिला@@
piece
ai@@
archive
एंड
back@@
स्क
vital
नर@@
आमाल
.0
यूरोपीय
निर@@
convey
Cap@@
नेट
award
Sir
teaching
देय
कपड़े
rev@@
presidentofindia
wives
regional
Find
sted
क्रांति
fol@@
ball
सार@@
सकेगा
Party
मल
Health
var@@
Z
waiting
star
सुविधाएं
division
अफ@@
Roy
dro@@
कामना
ick
आत्म
निशानियों
भेजी
ऊंचाई
sending
रुचि
ज़ालिमों
com
attached
पहुंचा@@
एक्स@@
disk
तेरी
grown
जितनी
capable
everyone
aim
एकत्र
बनाये
प्रेस
zone
लिपि
Knower
37
गरीबी
भक्ति
election
yn@@
Is@@
ढांचे
fit
शुक्र
सकते।
ध्व@@
वेद
द्वितीय
bestowed
bs
भारतीयों
पल
सें@@
Web
Assam
सभ्यता
phase
ancy
ME
wage
ger
appears
स्तरीय
24@@
Ser@@
प्यार
शय
संवर्धन
afraid
ट्रै@@
उतर@@
tonnes
ज़ु@@
मानना
à¤¨@@
काफिरों
hol@@
पौधे
ff
healthy
pray
जाल
जलवायु
perfect
पुकार
negative
मक्का
गहरा
हाइ@@
बचाव
atic
इंडियन
ध्वज
आउटपुट
entitled
weak
released
हॉ@@
doesn
requires
बोली
अरबी
मत@@
abode
homes
एं।
oned
ST
universal
forgiving
तुम्हे
sup@@
achieved
मस@@
ran
tis
वस्तु@@
ake
concern
जाया
engineering
resolution
ading
ली।
ide@@
लाइसेंस
मिलाकर
मॉडल
shared
reduced
hum@@
avail
जनरल
Bl@@
Bose
conc@@
cas@@
ran@@
vol@@
पद@@
धों
भेद
track
संविदा
Another
See
duties
चाय
बैंकिंग
Application
वकील
2002
लगे।
squared
उल्लेखनीय
ारा@@
शिक्षण
choice
यानी
leadership
ह्@@
interesting
अप
impact
शाला
nuclear
अन्तर्गत
que
courage
challenge
Te@@
nar@@
आप@@
आदम
दुख
helps
सुन@@
Fund
धीन
isation
संग@@
faithful
begin
दाता
pun@@
मिसाल
कागज
जक
UN@@
ंगे।
facts
Dec@@
मूलभूत
नामः
materials
अहले
che@@
Windows
इल्म
गठित
टिप्पणी
रिक्त
लानेवालो
Governments
looks
weeks
principle
रवीन्द्रनाथ
coun@@
historical
press-release-detail.htm
ahead
मद@@
वर्ण
Ganga
manager
drugs
28@@
वस्त्र
गण@@
doctor
घाटी
मिला@@
walk
घू@@
प्रतिभा
escape
प्त
घट@@
ideal
agencies
terrible
defence
हरा
actor
Ag@@
साहब
कोष
currently
ेंगे
nic@@
कारणों
store
बंध@@
तत्वों
meant
covenant
approved
Choose
दर्दनाक
DI@@
ation@@
पथ@@
चाहेंगे
mere
मुझ
sources
Met@@
Secretary
प्रविष्ट
To@@
ba
तत्काल
ack@@
त।
star@@
unknown
bet@@
performed
अग्रणी
pot@@
off@@
situated
आदान
हमको
खण्ड
कुफ्र
सहमत
ier
ine@@
extension
association
rep@@
huge
ग़ौर
बस्तियों
कथन
yan
deemed
चै@@
पक्षों
didn
माँ@@
टु@@
2016
communities
अक्षर
टिव
input
establishment
punish
double
font
bling
encies
त्य
चक
प्रवृत्ति
यम
offline
लगाए
णता
anc@@
तोड़
bha@@
बजट
चित्र@@
tered
ences
उतारा
फ़रिश्तों
Ro@@
ड़ों
thr@@
असाधारण
अमेरिकी
काश
अ
कर्तव्य
खरी@@
नेशनल
अंतरिक्ष
abide
users
उपकरणों
graph
दृ@@
कामों
ग्राफ
ंगों
नू@@
mus@@
खाओ
merciful
effects
संस्थापित
subjects
मोमिनीन
बेटा
पत@@
जीवन@@
छा
submit
Self
जानवरों
suddenly
इनसे
machinery
छोड़@@
त्रा@@
र्क
sacrifice
syn@@
lack
ऊपरी
बहुतेरे
क्रम@@
2012
वृत्त
29
हल@@
लें।
ham@@
मनुष्यों
thereby
Export
प्राण
आवा@@
sitting
relief
promotion
अधिसूचना
containing
देगा।
सद@@
courts
Yoga
cri@@
stars
ंडा
जोड़@@
मान्य
विनय
अक्ष@@
sit
notes
छुटकारा
recently
showed
pat@@
Mail
मादा
ease
gathered
आएगा
पक्षी
धू@@
वाइ@@
covering
नंबर
smaller
अम्@@
दृढ़
alization
उद्यान
Fl@@
रक्त@@
गांवों
formation
हिमालय
sacred
my@@
ेगा
prov@@
मरने
Once
Water
जातियों
पहलू
आरोप
Settings
आनन्द
गर@@
सत्य@@
War
वती
ंके
सामूहिक
decide
सदस्यता
Close
advantage
न्द्र
San@@
तीसरे
nearly
visited
friendship
उतार
बिहार
सिस
राहत
wing
स्प@@
लगाना
ards
reduce
elected
पना
Air
D.
confident
वाणिज्यिक
पैमाने
सवार
temporary
operating
victory
25@@
र्थ@@
fying
print
वल
participation
partner
port@@
banking
Dar@@
More
adequate
unable
दु
dream
90
Control
कहा।
User
ica
configuration
टक
पाल@@
dic@@
happiness
bow
बजे
Help
शर्तों
followers
resp@@
burden
अक्तूबर
लियां
tasks
स्वर
र्य
काल@@
Assistant
Mac@@
cross
Ak@@
पासवर्ड
partnership
व्यक्तित्व
acting
पत्@@
मिल@@
thanks
विरूद्ध
ख़ु@@
gas
antly
don@@
मंदिरों
नन
ंब@@
प्राधिकरण
नृत्य
Options
मासिक
विमर्श
appeared
लते
सुना@@
watch
शिशु
Law
commit
supreme
बॉक्स
believing
परसतिश
priority
आया।
गुज@@
साहित्यिक
अन्तर्@@
universities
सचिव
served
challenges
constant
घि@@
factor
मुखी
ear
अस्पताल
student
bringing
festival
संतुलन
च्छ@@
Bihar
समानता
actual
concept
बनकर
proceedings
कमरे
क्ष
सितंबर
down@@
का।
पदार्थों
Whoever
Kan@@
बौद्धिक
़
pages
पीने
सीमाओं
K.
vir@@
Str@@
hair
पड़ती
magic
राजस्व
rem@@
कम्पनी
पिछली
अगली
आरंभिक
सम्पर्क
वृत्ति
permanent
Comp@@
charged
classes
Non
स्वच्छ
ल्ला
attitude
जग@@
दौर
commun@@
Andhra
मुंह
ठहरा@@
Uttar
land@@
pre
केंद्रित
फ़ी@@
तार@@
पीढ़ी
yr@@
discussion
शक्तिशाली
memo
Files
गरीब
75
swear
स्थि@@
मता
commanded
नज@@
settled
tains
eve
chance
damage
Mission
match
योग्यता
igh@@
mit@@
awareness
मोहन
पैसे
जहाज
पशु
SS
बुद्ध
ordinary
Scripture
कठिनाई
ज्ञ
climate
Take
उपबंधों
अमल
Server
ides
s”
medicine
car
block
स्वीकृत
ony
contents
खी@@
desktop
ater
devotion
Nar@@
झुठला
Arabic
branches
चाहा
बिगाड़
मांस
falsehood
substance
colour
खून
Flag
ow
ail
Legislative
sub
चर@@
सफलतापूर्वक
ders
णि@@
foundation
अवसरों
लेगा
win
via
जोड़ा
हिंसा
सामान्यतः
tors
क्षा@@
78
upper
script
उधार
lic@@
विष@@
तापूर्वक
इसराईल
strengthen
attempt
trac@@
season
अपना@@
1999
छोड़ा
cul@@
डराने
प्रसंग
with@@
क्रिया@@
rice
occurred
पड़ा।
९@@
चीजों
battle
बाग़ों
चेक
साइट
दिव्य
efficient
forbidden
Mat@@
समुचित
शिव
खुश
टः
०@@
अप्र@@
obtained
destruction
1961-2018
तौ@@
sleep
देखी
lose
बड़@@
manufacturing
Network
purchase
190@@
सम्भव
à¥
peoples
theory
प्रभार
समाहित
लगती
ays
Chinese
Code
पात
arian
चाहें
याची
ight
links
deleted
धिकार
implemented
कोण
लिक
इसपर
सरकश
माल@@
bing
हटाएँ
अनुमोदन
brain
cop@@
Musa
कना
London
acted
cour@@
whatsoever
lying
संगठित
ISO
Ge@@
क़ुबूल
objects
&#124;
atmosphere
advanced
kar@@
वाणी
इनपुट
कोशिकाओं
क्षा
डिजाइन
AP@@
व्यवस्थित
स्ता@@
solution
ATION
कहेगा
26@@
union
Bharat
प्रतिदिन
/@@
phone
bird
दोहरा@@
intellectual
applied
brothers
35
ठी
Subhas
टर्@@
गें
नाम@@
दूरस्थ
गहन
पहुँचे
zing
adi
democratic
ईसाई
परिचित
ंज
बढ़ने
खतरा
Mother
whereas
ृ@@
minds
प्रत्या@@
मित
छाया
da
द्विपक्षीय
western
नेअमत
टरी
पुरुषों
Members
facility
marketing
dance
विधा@@
सराहना
हिंदुस्तान
ined
ows
उपयोगकर्ता
कुं@@
equipment
Training
Rules
Business
प्रि@@
प्रकाशना
becoming
Adam
इसीलिए
ठि@@
कर्नाटक
agree
ट्रैक
designed
००
ग्रह
constituted
रूप@@
Up@@
महीनों
सूत्र
alised
sun@@
wood
worth
संभावित
reports
oun@@
Bir@@
चाहती
73
पहुंचा
यार
संक्षिप्त
जिसपर
of@@
sli@@
फोल्डर
दक्षिणी
विचार@@
मानता
वैसा
समन्वय
Signs
properties
ME@@
संरक्षक
AT
Nature
फलक
Chand@@
seemed
विनिर्माण
एड@@
dge
Man
objectives
अपनाया
proposed
mountain
विद्यार्थी
मियों
toward
प्रदूषण
ret@@
पण
Something
cry
करी
Bel@@
आज्ञा
अकेले
compared
CON@@
à¤¤@@
पंजीकृत
equality
politics
RO@@
inter
ray
leg@@
परे
विरासत
multiple
ful@@
Current
सोने
costs
aka
0.@@
currency
Article
दम
bounty
चीज़े
à¤²@@
रिया@@
flowers
ote
heed
frame
consists
पारंपरिक
servant
fundamental
स्टा@@
आपसे
terrorism
lar
रण@@
स्टो@@
stat@@
R.
इलाज
प्रशांत
हाज़िर
रियों
properly
स्वी@@
र्ट
साझी
मोहम्मद
असम
रोका
युवाओं
श्रेष्ठ
शोक
उपलब्धि
Official
लम
Gur@@
आचरण
रू
agency
ग्राहकों
limits
menu
इन्सान
70
argument
साहस
,0
angle
भा
ग्री@@
iron
नौ
hun@@
परम
accused
प्रथा
बैठ@@
ate@@
मल@@
महाभारत
poets
nam@@
License
जनों
tal@@
गहराई
B.
ond@@
रेडियो
ong@@
लड़की
सीमा@@
शोध
holds
tering
bilateral
sting
ster@@
keys
ura
Although
तृ@@
debt
scientists
संस्@@
jurisdiction
administrative
भांति
सल@@
तू@@
गल
क्रे@@
ङ्@@
Pacific
review
yed
फर@@
बौद्ध
prove
ually
solar
ew@@
registration
काफ़िर
thoughts
organized
Park
examples
Nav@@
SS@@
01
ट्रि@@
Indi@@
entr@@
admit
अंतराल
कारोबार
maintained
integral
sends
welcome
प्रतियोगिता
J.
elling
निकलने
संयंत्र
Tribunal
Karnataka
बादशाह
rupees
arm@@
heads
gran@@
धारी
ंगी।
ind
anger
foot
playing
निका@@
UT@@
जिहाद
न्यायिक
gan@@
hat@@
commitment
maintenance
corruption
sees
Security
reported
Mus@@
itation
फॉ@@
राव
द्ध@@
क़ायम
आयी
à¤
बचत
backs
www.presidentofindia.nic.in
सचेत
फ़िल्टर
sustenance
skills
scholars
stands
closed
जय@@
Nor
library
Print
सूचित
क़ादिर
approval
भाष्
निंग
अग्रिम
कॉलेज
फ्रे@@
नाक
conducted
deliver
जम्मू
कने
जानवर
bottom
Clear
उठ@@
सफ@@
जवा@@
प्लस
ख्@@
Bas@@
मुर्@@
ects
dies
prayers
Editor
blessed
45
Director
दृष्टि@@
pane
Independence
Judgment
गुफा
identified
Society
employed
रम
pri@@
ley
strike
displayed
ung
निभा@@
AS@@
बुद्धि@@
गिरफ्तार
वरिष्ठ
गुणों
filter
han@@
mag@@
Val@@
rop@@
पन्@@
चल@@
विभागों
IP
ame
zero
ese
ene
सहमति
pose
सिंचाई
vis@@
processes
यहीं
Line
टॉ@@
high@@
LDAP
चैन
पहुंचने
पत्रिका
बोलते
register
losers
संहिता
तसबीह
आबादी
सिफारिश
डीवीडी
आस@@
पहुँचा@@
stones
मिटा
School
ulate
ंस@@
creatures
पूर्णता
अनाज
जुड़ा
कूट
ises
पने
Small
eries
आसमानों
दावे
धातु
पैरवी
फज़ल
गति@@
करू@@
Word
प्री@@
शर्त
professional
पट@@
tissue
८@@
तरी
ul
पट
organised
Babu
hot
तक@@
अली
Province
न्न
र्थी
judgment
functioning
spoken
decisions
बाबत
सूर
कट
जीव@@
पहुंच@@
CE@@
धे
Like
Justice
संचालित
dear
सूचक
पते
अर्ज़
vi
onto
Authority
क्ट
चैतन्य
यि@@
विविधता
स्टेशन
aud@@
वाल
महाराजा
रूपों
bones
Ash@@
मौलिक
arrived
प्रसाद
aims
जिन्@@
song
asking
earn
वंचित
ंश
बिन्दु
पाँच
कारियों
कत
recognized
होंगी
सिद्धांतों
तंत्रिका
भक्त
निकालने
blue
ंगा@@
गर्म
ris@@
motion
category
तीं
निकाय
Mis@@
mer
छू@@
तापूर्ण
tools
मां@@
क्रिकेट
prostrate
तारा
भरने
समर्थ
ol
बोध
committee
arm
करों
देशी
हमे
bel@@
core
ains
बडी
formal
Her
पाना
भंडार
worlds
Video
प्रसन्न
अमरीका
बढ़ते
झ
समितियों
प्ति
बचाने
क्षेत्र@@
ush@@
गन्@@
records
IL@@
bearing
di
जीवों
districts
Social
हलाक
analysis
अमरीकी
customer
बीस
पार्क
Orissa
॰
worthy
मिश्रण
race
धन@@
expenses
अकेला
Best
refused
जित
finally
संबोधित
duc@@
beg@@
ey
iv
loading
अत्याचार
lac@@
नात्मक
encourage
ब्रे@@
Chrome
V.
any@@
vac@@
Press
hear@@
्रा@@
inj@@
स्तरों
ढ
officials
ands
शिक्षित
aj
sex
कायम
Q
आव@@
ाई
विद्वान
बम
ature
लंबाई
extremely
काफ़िरों
Tra@@
अंकित
शू@@
tru@@
दिख@@
chemical
layer
मोमिन
गामी
देगें
लाएँ
absence
entirely
recognised
चीजें
रच@@
गहरे
नाइ@@
Divine
ड़ते
broken
principal
णु
व्यापारी
ami
लकड़ी
hypocrites
behold
दौड़
@@
सचमुच
guides
फैला
ei@@
स्ट्र@@
फोटो
आस्ति
electricity
witnesses
दिसंबर
simply
whenever
2009
Speaker
अन्त
एकदम
Women
सच्ची
पैकेज
fold
starting
origin
ell
बुक
Civil
thousands
वली
पहाड़ी
संलग्नक
ros@@
differences
जानकर
शंकर
राहे
mostly
विद्यालय
हें
à¤®@@
अंग्रेज
alities
त्रों
ishes
ils
बह
ym@@
seeds
fuel
buy
ह्य@@
non@@
चिकित्सक
latest
Foreign
लाकर
territory
शाही
Ph@@
conver@@
स्व
टूट
icon
Kam@@
शांत
app@@
आख़ेरत
फिर@@
gather
संभवतः
दर्जे
गौ@@
बच
composed
लिखें
1,@@
से।
initiative
temperature
grain
सह
click
लिय@@
fu@@
वरी
ool
announced
तंग
दो।
custom
Income
Window
ताल
happens
Over@@
सत्@@
चिन्@@
खों
Cam@@
markets
dian
उल्@@
runs
ome
‘‘@@
अन्तिम
Software
ज़रिए
कड़@@
तेरा
sets
जादूगर
राजभाषा
स्मरण
साक्ष्य
कर्ताओं
परिसर
प्रश्नों
fly
यूनिट
मित्रों
notification
Limited
परिवारों
à¥@@
ach
वाहन
पुस्तकों
साम@@
जड़
सहारा
लिखना
करेंः
छात्र
Pra@@
kers
प्रतिभूति
grieve
deposit
रहम
औरत
तापमान
ord@@
Rural
ंकन
grateful
परत
जन्@@
बैठा
undertaking
जोड़े
2004
fies
नायक
ound
Ben@@
ताकत
leads
ples
technologies
Calendar
भार@@
Gl@@
रहेगी
ON@@
Urdu
उर्दू
expect
मूर्ति
उत्साह
चन
संशोधित
पूर्ण@@
जाय
एँगे
१९९@@
Her@@
ink@@
label
न्य@@
प्रजनन
em
शिक्षकों
conflict
hospital
eless
कैसी
movements
cave
Manager
Call
Industrial
परिवेश
ere
वं@@
Cal@@
Mah@@
Do@@
क्षि@@
जवाहरलाल
Ran@@
संपन्न
बैठ
्यु@@
impl@@
क़त
प्या@@
शन@@
न्यास
center
उपक्रम
तैयारी
अपराधी
लिखते
कुशलता
conscious
Size
eggs
decades
क़दम
जं@@
tea
उत्तरदायी
Disable
household
रखकर
ee@@
Vi@@
preview
पैर
prime
revelation
प्रक्रियाओं
पीड़ित
झूठे
qui@@
explained
जंगल
izing
पलट
गन
pollution
मुगल
वादियों
Password
चुन
reli@@
mul@@
र्थ
alists
तरीकों
सरपरस्त
ड्स
if@@
reform
wrongdoers
दया@@
अत्याचारी
burn
लानत
ंकी
delay
nor@@
घटित
automatically
represents
क्का
डू@@
pride
onal
quickly
न्यायालयों
turning
liber@@
मददगार
किलोमीटर
ब्रि@@
pious
ports
U.
वाय@@
tar@@
reforms
ढूंढें
require
ography
डरा@@
component
centuries
career
directed
apostle
घो@@
सुर@@
समझे
षक
elections
Mi@@
throw
Bri@@
ared
आलोचना
उल्लंघन
French
sin@@
दिखायें
छे@@
personality
.5
डन
कहां
None
mi@@
feature
साथियों
My@@
दै@@
आंकड़ा
नक
tab
ंडी
thereafter
ush
lev@@
EX@@
वाक़िफ
tro@@
सशक्त
ब्रिटेन
raw
कचरा
depends
fulfilled
हैदराबाद
Del@@
judgement
eligible
tives
Ko@@
exports
Report
ज़ोर
असली
informed
फलस्वरूप
टू
loans
उक्त
रही।
कॉर्@@
चं@@
vers
गर्मी
अभिगम
pieces
ंगा।
Garden
sake
लो।
Tell
judicial
marks
धन्यवाद
à¤@@
explain
conv@@
शरी@@
पुकारा
outer
Pen@@
ख़ौफ
उतार@@
ounds
alized
विशेषज्ञ
संगम
apostles
जितने
आद
स्टै@@
à¤à¥à¤@@
Force
dh@@
स्क्रिप्ट
Except
felicitations
med@@
offices
holy
creative
aside
pas@@
मृत
Can@@
yield
चना
à¥@@
रसायन
विक्रय
मिलेगा
yp@@
पन@@
उच्चतर
squ@@
extra
tomorrow
rising
utter
drug
count
स्वर्ण
ँगा
forced
understood
ँ।
towns
regarded
बिया
bus
पाठ@@
गणित
profits
instruments
ech@@
मेट
ज़कात
constitution
र्थियों
रोगों
opposition
दुर्घटना
शक्ति@@
धारणा
कस
agar
outstanding
John
equally
iled
फर्म
स्वामित्व
spot
तने
girls
आंध्र
MP@@
band
ni
अधिकरण
yl@@
instructions
ग्रंथ
Just
वाद्य
invalid
identity
अर्जित
flu@@
dom@@
shi@@
repl@@
oral
हार्@@
revenue
possession
शासित
फार्म
alisation
ger@@
Pand@@
मधु@@
बहस
plans
पुकारते
चोट
एकीकृत
speaking
spec@@
ous@@
आज्ञाकारी
Ali
न्ट
drama
वासियों
ext@@
कोलकाता
ase
लि
database
aspect
उच्च@@
railway
शरण
कीटों
inary
deeply
Fil@@
Command
ero@@
ron@@
औपचारिक
वैकल्पिक
सम्मानित
theirs
itors
hardly
सम्बन्धित
tongue
जापान
असं@@
लगाते
चित्रण
KDE
2003
निरा@@
Reserve
जॉ@@
ें।
प्रयोक्ता
रहेगा।
Association
wr@@
संत
ust@@
धार@@
conference
Ta@@
trouble
improvement
eted
मंडप
dil@@
revolution
vic@@
प्रतिवादी
Agriculture
ण।
glory
Nadu
dealing
साधनों
interested
बल्@@
radi@@
ईमानवाले
नं@@
पंडित
possess
prob@@
Kumar
à¤¦@@
पुनः@@
वैज्ञानिकों
ie
Wh@@
फायदा
फर
oting
कृतज्ञता
पिछला
22@@
scre@@
consumer
बोला
coal
जायेगा।
सियों
admitted
li
Jammu
Br@@
ज्ञान@@
चम@@
abad
customers
pos@@
काले
hes@@
AR
recited
aut@@
sold
immediate
Location
हाथी
शानदार
answered
acquired
चंद्र
उन्होनें
भर्ती
फ़ाइलों
Gre@@
आफ
सावधानी
impossible
उस@@
वापसी
स्वप्न
busy
कष्ट
शीर्षिका
bol@@
wa
are@@
ष्टि
proposal
कराना
छत
jan
गांधीजी
cel@@
owner
दोज़ख़
Woe
टाइप
संख्या@@
Mark
behaviour
deity
संधि
oning
ounded
नवीन
Apostle
दियों
संगत
respondent
डियों
showing
icate
आईटी
डिग्री
dedicated
पूर्वा@@
estimated
शिक्षा@@
reveal
fulness
rare
सन@@
क्रमशः
अंग्रेजों
prose
replace
wid@@
लाता
sugar
ecting
पनाह
BAR
oth
भौगोलिक
availability
occur
तकलीफ़
Out
petition
कें
recognition
Shall
बिट
polytheists
deed
train
सम्पन्न
पसंदीदा
senior
considerable
बाक़ी
टक@@
१८@@
Email
लम्बी
Bangladesh
जाये।
गाय
mobile
चों
Rep@@
spite
धर्@@
निष्ठा
affect
पूछ
Believers
पेंशन
desired
क़रार
दिमाग
Mary
communications
आधारभूत
appearance
respective
ध्य
फर्@@
ori@@
ऑफ़लाइन
भगवान्
roads
ram@@
यथा@@
क्ला@@
desert
cher
Ministers
उत्पा@@
mine
mixed
hara
NE@@
श्रीमती
imp@@
disabled
corporate
अर
दिनांक
willed
प्रतिदान
अंत@@
चिं@@
tle
steel
skill
लड़का
humanity
holder
सकारात्मक
देंगे।
nur@@
समूद
overall
warned
ae
figures
distinguished
ंसी
essing
Hy@@
परवाह
हस्तक्षेप
होती।
GNOME
normally
Filter
gation
disbelief
Ham@@
int
त्ता
ole
Rev@@
wat@@
N.
आंशिक
ury
मज़बूत
यथा
बिन
ty@@
समर्पण
teach
उत्पादक
अपरि@@
Mand@@
तबाही
टर्मिनल
टकर
curse
साक्षी
Whatever
बहु
१०
dic
शास्त्री
nation@@
tis@@
बेहश्त
गूगल
walls
नाओं
बाहम
वैदिक
पैसा
obtain
वर्णित
निष्कर्ष
reasonable
गे।
hurt
acity
housing
उपायों
ications
thirty
tes
खतरे
कक्षा
विश्वसनीय
attachment
MS
¤@@
Hyderabad
border
प्रत्य@@
head@@
पुष्@@
whomever
शराब
कोर
मिटा@@
parent
à¤¬@@
reflect
hat
खबर
Hol@@
bridge
spoke
ratio
filed
play@@
रोकते
beneath
satisfied
signature
होगे
ष्ठ
ताः
ron
gains
अतीत
stages
मार्क
des
citizen
settlement
मुद्दे
सूच@@
irs
पुराना
क़ाबू
प्रोजेक्ट
ज़्@@
बुलाया
लेबल
सेंट
rock
हटाने
Co
Awards
soft
aded
broad
क्षी
rap@@
Status
armed
falls
इकाइयों
Due
ple@@
जाएंगे
पिछ@@
डॉलर
thir@@
आकलन
ov@@
ousness
university
NO@@
दरिया
पीछा
belonging
वट
आँखों
ढांचा
religions
स्त्र@@
शिव@@
calling
advis@@
post@@
Sw@@
Pol@@
पक्ष@@
धूप
विफलः
twice
hasten
enemies
2011
remaining
educated
interface
आपसी
रोज़
employee
Fi@@
chain
grew
swe@@
डालते
scope
१९@@
remembrance
कनेक्ट
बंदी
मनपसंद
अक्ष
प्लगिन
देह
leaving
undertaken
पूछो
ड्राइव
फार्@@
main@@
has@@
भावनाओं
उद@@
स्वि@@
da@@
TH@@
Description
Plugin
fur@@
David
क़रीब
real@@
तीस
Human
निकाले
ढ़ी
writers
तल@@
hap@@
चुनौतियों
entation
189@@
नाते
Bur@@
DA
LE
अभिभाषण
पदों
ये।
stored
आए।
उतनी
ईंधन
billion
Trade
लंबा
ining
सतत
Noble
fourth
deduction
चारी
porter
So@@
Buddha
fifty
सकी
पूर्ववर्ष
बंधन
Insurance
Jews
ills
masses
fellow
difficulty
Division
गंतव्य
सन्देह
ंडर
कः
gift
क़त्ल
भरपूर
Eastern
IMAP
sexual
उगा@@
प्रमाणित
दिसम्बर
Persian
silver
ढो@@
ष्टि@@
बिता@@
Source
agent
compensation
edge
initiated
न्
daughters
उपर
axis
tivity
आरो@@
infection
wan
Being
numerous
enjoyment
bal
sell
गद्य
Scheduled
देवताओं
नारायण
Ber@@
Lot
स्पष्ट@@
लत
करम
सत@@
फौरन
Speaking
lit@@
platform
sister
jinn
Audio
83
सारणी
consumption
अंडे
campaign
स्वभाव
sely
baby
PS
संतुष्ट
ken
शोर
Post
talking
प्रसंस्करण
Jawaharlal
टेड
mid@@
अग@@
बीमार
cope
तीनों
preferred
लिका
घनिष्ठ
survey
अंततः
detailed
transaction
असल
समे@@
मील
arity
फ़ा
chapter
ith
न्य
hom@@
alive
bers
काला
नवंबर
संपदा
निवासी
bon@@
Mohammed
ट्री
नदियों
criminal
व्यावहारिक
उड़ा@@
वालो
respite
à¥à¤°@@
ander
older
arrangement
emb@@
हृ@@
गम
फी
परोक्ष
trading
सम्राट
अनि@@
लगाकर
Red
lam@@
specially
solve
कुदरत
dialog
ax@@
val
touched
करेगी।
डालने
recite
डाय@@
ज़ों
योजनाएं
NA@@
आईडी
डालें
प्रवर्तन
दाहिने
Screen
सक
फरिश्ते
idols
Organ@@
ंको
mm@@
क़समें
quantity
महत्त्व
helper
achievement
अखिल
कथित
वहन
believes
completion
den
बताता
Dra@@
strategy
लेख@@
Rel@@
र्इ
नव
सकती।
उद्देश्यों
ला।
alo@@
transmission
तथ्यों
अनुपालन
Vishnu
कम्प्यूटर
bit@@
hus@@
alist
itable
ton@@
Sardar
suit
fee
संगणक
बाधा
ग़ा@@
जाग@@
तु
allows
वस्तुएं
intended
horse
Japan
मुल्क
धियों
प्रतिष्ठा
adi@@
स्तान
°
दवा
transactions
dar@@
एजेंसी
इजरायल
पटल
सकेंगे
receipt
suggested
founded
clouds
multi@@
organ
lim@@
Sat@@
organizations
worshipped
काली
निरपेक्ष
wild
माला
जानना
जरा
occurs
सल्@@
au
ल्ल@@
तमिलनाडु
ro
गाड़ी
पुरा@@
पृथक
clay
hel@@
कोर्ट
LO@@
Deputy
उन्हे
cro@@
improving
Left
परिवर्तनों
hit
Ri@@
गुरू
Note
नकारात्मक
बचने
Jesus
ration
सीखने
heritage
सान
Credit
collected
à¤°
dri@@
willing
sn@@
गमन
क्षु@@
flower
बरी
profession
कार्यरत
दर्शाता
राष्ट्रों
sheet
कार्यान्वित
सम्पत्ति
struck
पूरक
à¤¹@@
penalty
Binoy
inst@@
hari
offers
efficiency
भ्र@@
ham
नाएँ
lets
चलाया
कलाकार
identify
प्रभावशाली
वास्तविकता
नर्@@
aught
प्रस्तावित
टिस
अक@@
पाइ@@
ital
सभापति
ju@@
ament
drinking
integrated
ऍ@@
Perhaps
गारंटी
floor
कार्बन
overcome
स्कीम
झि@@
tra@@
बनना
पत्तियों
दार@@
Ha@@
simpl@@
promoting
satisfaction
गतिविधि
समी@@
absolute
courses
cho@@
वार्@@
attend
संदेशों
हजारों
देखोगे
Award
wear
ili@@
Exalted
मि
कुल@@
संभा@@
worldly
छ
hill
complaint
अपनाने
कित
gener@@
अवज्ञा
चाल@@
लिस
stayed
रखती
POP
symbol
Sec@@
linked
ड़िया
asi@@
याई
nity
Sud@@
DA@@
सॉ@@
थी@@
आह्वान
starts
H.
Mode
ordered
rows
index
Industry
मुकदमा
palm
टरों
ums
noble
रिकार्ड
पहाड़ों
लंदन
hop@@
हक
cycle
Table
पुरी
express
Nations
सवाब
dev
यहूदी
बडे
शैक्षणिक
finished
Ir@@
वसूली
framework
हां
काने
Food
राज़ी
sudden
रना
स्टी@@
comprehensive
fun@@
इयों
specify
gri@@
योग@@
सिरे
शासक
sia
add@@
चीज़ें
जीन
ith@@
अनुसूची
जर्मनी
आस
liars
भै@@
cip@@
firmly
Chapter
समुदायों
addressed
सकल
1947
driven
long@@
celebrated
printed
adap@@
हँसी
SSL
रामायण
legs
वर्मा
गोरा
षित
Pu@@
oring
झूठा
windows
SC@@
mos@@
pressed
अलबत्ता
ब्राह्मण
invited
micro@@
plot
मक@@
meetings
दय
proofs
किन
seconds
दरबार
IR@@
applicable
college
लस
eting
pil@@
facilitate
रल
ड़ि@@
Local
begins
जरूर
wards
writings
dig@@
विद्वानों
उपलब्धता
strive
Swami
ऊतक
१५@@
comb@@
Vir@@
organisations
फैल
Mr
श्य@@
wherever
tioned
उठाना
ny
cried
Jo@@
होना।
्यों
क्ति@@
charity
मुहम्मद
Committees
यातायात
पाय@@
स्थितियों
Himself
०००
excellence
खिलाड़ी
Russia
ete
The@@
अस्थि@@
षी
महि@@
निधन
Economic
self-@@
requ@@
दोष@@
जुड़ी
प्रदर्शक
iring
spring
चलती
नवम्बर
कालेज
कैंसर
असामान्य
अग्नि
sign@@
अपनाई
सिंग
productivity
evolution
यक़ीन
नमूना
बनता
forming
क्षे@@
span
वल@@
elled
pension
contemporary
Ask
valuable
डो
ज़े
relative
क़ुदरत
घास
intelligence
noted
0.0
कर्मों
Tir@@
वस्था
संजाल
respectively
टैग
जात
sem@@
Mun@@
ener@@
Kir@@
endra
च्@@
षा@@
ras@@
Further
forests
diverse
स्ती
क्त@@
रं@@
प्रोटोकॉल
गीता
acqu@@
बेकार
node
harmony
Pa@@
दं@@
धक
initi@@
वीर
194@@
Key
फाय@@
स्ट्रिंग
recognize
TRANSLATORS
Good
drew
narrow
पिंग
युद्ध@@
wicked
मुख्य@@
पंजाबी
Jan@@
लाभों
छुट्टी
equals
aming
झील
भाषा@@
दुश्मन
क्रेडिट
Get
लियाँ
इताअत
sion@@
नार
sustainable
irrigation
पूछ@@
ode
Raj
assembly
divide
ीं
Banks
अंग्रेज़ी
सूरज
दक्षता
fighting
drawing
—@@
रूस
ख़ैर
tar
ष्ठ@@
controlled
करेगी
resident
अधिकारिता
ख़
summ@@
Dep@@
rightly
Ev@@
चावल
Level
governments
sick
saving
scene
लीग
MIME
माइक्रो@@
बच@@
मिस्र
Part
व्यापारिक
pointed
gradually
चर्@@
समय@@
council
shop
Card
पाता
fail
पूर्णतः
कुबूल
wor@@
producing
End
ming
अज@@
valley
istic
सऋ
आदत
Master
sweet
expansion
rit@@
विद्रोह
ads
direc@@
स्य
हिं@@
run@@
प्राणी
नेवाली
सच्चाई
ौ
केंद्र@@
.1
Hon@@
sat
diversity
केंद्रों
दुःख
जिम्मेदार
क्रियाओं
इन्हीं
esh@@
इंजीनियरी
अभ्यास
improved
ila
ben@@
रिंग
Ambedkar
क्षित
continuous
camel
नोड
कवियों
Earth
ध्@@
बंबई
बादल
Certainly
nec@@
बाजी
upto
judges
ो।
प्रतिकूल
फरमाया
दत्त
भूख
publication
१@@
allowance
क्षक
advised
Nir@@
सामान्यतया
उधर
सुन्दर
analy@@
injustice
गर्व
साय@@
owing
करो@@
equity
मना@@
à¤µ@@
vari@@
चार्य
fat
पारि@@
ender
क़ि@@
लेखकों
idity
sole
मौका
परिवर्@@
initial
ag
usual
crime
आत्@@
तत्त्व
उद्यमों
ज़िक्र
universe
Ja@@
eling
पुस्तकें
medi@@
मेमोरी
mm
Sab@@
Mughal
Task
ारो@@
naught
herself
मुख्यतः
तीसरा
counsel
Chaitanya
बान
shaped
रेखा@@
vain
ck@@
रखनेवालों
planned
bright
degrees
contribute
selling
Fr@@
suffered
lion
गलती
addresses
soldiers
पड़ने
Hide
किए।
Template
मिला।
difficulties
affair
Army
अफसोस
विधि@@
Cham@@
Regional
Sil@@
रती
भरें
farm
विनाश
demands
à¤à¥@@
सेन
काएं
fluid
tures
bly
अपेक्षाकृत
covers
व्यर्थ
Mor@@
रचनाओं
चुकता
competition
ड़कर
Fac@@
Kingdom
गाँव
संग्रहालय
गल@@
गोपन
लेंगे।
Keep
pace
केडीई
Cur@@
Pri@@
सौं@@
Second
सकने
राइ@@
Gupta
गण
कर।
तन@@
विवा@@
coll@@
ied
वाहक
Value
pa
devices
oration
repentance
Over
eternal
discharge
टिन
नम
पढ़ते
tan@@
twelve
wonder
टिका
इस्लामी
मोह@@
hills
deposits
Houses
चुपके
अँ@@
reader
boys
Later
enter@@
परिभाषा
FOR
row@@
oes
आदर
departments
र्जी
decree
वर्ड
Bu@@
मिश्रित
ud
TV
हर्@@
निः@@
एव@@
कृत्रिम
बू
ञ@@
usage
कियों
शीर्ष@@
Bring
succeed
प्रिंटर
Kolkata
कमाई
बताते
She@@
Give
J
मानवता
Kh@@
pup@@
Shar@@
आमंत्रित
एल्@@
माउस
डोमेन
ढेर
domain
distributed
दाम
cing
Vedic
फसलों
Amendment
waters
केन्द्र@@
खेत
boo@@
अंध@@
कॉपी
Cir@@
मिट
कृपा
Font
लौटा
observe
increases
बेटों
नाबार्ड
Joint
Forward
realize
रान
ision
sorrow
सकेगा।
duration
वाहि@@
environmental
लम्बे
प्रेषण
repent
discipline
Asian
मिलना
करने@@
पड़े@@
सब्@@
शे
घाटा
couple
gg@@
transferred
प्रशा@@
उतर
वाणिज्य
Accounts
भग@@
greatly
ga
विहित
त्तर
Never
काँ@@
्रि@@
requested
पृष्ठ@@
प्रणालियों
flag
दलील
ries
apped
सूत्र@@
continues
Rem@@
à¤@@
remarkable
Out@@
एशियाई
far@@
कहे
Tha@@
इस्@@
crisis
anta
proxy
क्रय
Subject
Does
डै@@
संयोजन
sal
आए@@
ET@@
thi@@
शियों
वर्ष@@
ond
dition
beside
ea
रचनात्मक
spl@@
सीता
डरता
ज़ो@@
48
नकदी
शिर्क
नकद
Police
2010
stopped
strange
Affairs
prison
jobs
वायु@@
भारत@@
Exp@@
कीर्@@
पुराण
lining
बुर्@@
aps
sand@@
ther
jail
विद्या
स्रोतों
dep@@
bor@@
gin
वश
ताप
प्राप्@@
शेयरों
शाखाओं
मद्रास
telephone
vit@@
Madras
विष्णु
पारस्परिक
League
अम@@
लियन
खनिज
हमपर
UL@@
mal
facing
सालों
परिश्रम
guardian
executive
band@@
communal
बैक
मक्@@
bre@@
dam@@
Messages
नस्ल
आरक्षित
rulers
पढ@@
Mer@@
Ba@@
वस्तुतः
ly@@
Year
He@@
ja@@
components
lations
हाउस
flowing
मूर्@@
हरों
Properties
आँखें
बरा@@
.2014
घटा@@
देहा@@
je@@
फ़ी
बताने
टिकट
उठ
शोधन
आमदनी
lands
iny
मंद
लिया@@
गान
determination
Das
बाल@@
मिटाना
deser@@
विकासशील
cow
tre@@
bud@@
वजन
300
देनेवाला
प्रोफेसर
मारा
जैन
प्रॉक्सी
News
बख्श
रस्@@
गुरु@@
इरादा
अनुचित
tribal
थन
पाद@@
radio
दिखाना
Coun@@
पहलुओं
poetic
फे
HTTP
deals
मरम्मत
tible
नवा@@
fle@@
discussed
doub@@
appl@@
millions
नशील
faithless
डिस्@@
Mul@@
cou@@
Germany
translated
CA
उत्पादकता
tioning
trained
इंग्लैंड
शोषण
नजात
fought
ca@@
Capital
प्रसारण
वारिस
लोकतांत्रिक
जायें
HO@@
बगैर
offence
नाग@@
split
papers
kha
owned
टाई
आदमियों
package
launch
competent
लम्@@
kind@@
परंपरागत
सृ@@
unseen
mechanism
eful
sentence
तीय
prh@@
sha
dwelling
water@@
Unit
Sk@@
wings
Oc@@
आजीविका
emp@@
मेह@@
ever@@
कीजिए
sam@@
निवेदन
सेक्टर
नामों
गले
Mount
cle@@
enting
ga@@
dist@@
वांछित
बर्फ
फिल्टर
exactly
ock
faced
वितरित
विधिक
Raja
Oh
आजाद
जाँ@@
omy
कविताओं
मार्ग@@
स्पर्@@
क्की
cotton
tend@@
प्रकाश@@
आखिर
अधिवेशन
occup@@
DAY
devoted
दल@@
प्राधिकार
सारांश
civil@@
बेटी
represent
देखेंगे
होगें
प्रेषक
awarded
मतदान
sad
Christians
यात्री
tiv@@
दार्शनिक
acceptance
ew
उड़@@
गवर्नर
stand@@
rapid
खू@@
डिजिटल
aches
गोल
structures
violent
जाता।
grad@@
समझना
कार्या@@
stations
emphasis
सोचते
blame
permitted
NABARD
Full
बुला
स्वीकार्य
उतारी
दलों
र्र@@
झे@@
सहन
त्त@@
authentication
मैन
सबका
admonition
Online
president
सृष्टि
haply
practical
हिमाचल
ection
terminal
वधि
सिक
बचपन
oms
mol@@
Annual
स्कूलों
म्स
Mercy
बाग
Has
ints
signal
मोमिनों
Afghanistan
कतिपय
क्लि@@
ंका
yo@@
धारक
frag@@
खींच@@
dwell
बैकअप
tries
चलना
MAPI
हाई
inform
Ibrahim
दायी
White
path@@
VI@@
बहुमत
सिर्फ़
accident
ड़ने
Similarly
relatives
à¥@@
मानने
मशीनरी
भूमि@@
fort
wages
आदि@@
जंगली
देना।
Class
righteousness
ंडे@@
interpretation
सफाई
widely
fix
minute
electronic
programs
अर्ध@@
एहसान
जगत
ki
Program
loaded
निकले
ज़बान
PE@@
PRO@@
लाइट
कवि@@
Global
सेवक
pair
मांग@@
buildings
realise
Aware
संस्था@@
माम@@
ऊँ@@
Custom
रासायनिक
player
खोजें
inspiration
चिप@@
ails
palace
rup@@
ligh@@
digital
याचिका
Mir@@
Gan@@
फ्रेम
36
Japanese
significance
Look
sensitive
Details
आशय
ere@@
धि
ocean
acid
Courts
carefully
झा
thrown
मुस्@@
si
representative
कृतियों
pet@@
oath
termin@@
qualities
sinners
hal
combination
इबरत
flat
à¥@@
तकों
submission
दाय@@
tory
चालक
पाठक
za
सहयोगी
arguments
insect
पाकीज़ा
हित@@
mad
Equ@@
cular
1998
investments
profile
हटा@@
मश@@
ऊंची
सुनकर
सेल
meat
MO@@
pop@@
mandapa
बने@@
Gora
steadfast
राष्ट्री
subjected
Madhya
weak@@
Knowledge
Through
Mil@@
solutions
साह@@
ban
ens@@
ही।
thor@@
सज्@@
घोष
bow@@
हुकूमत
लक्ष्यों
जिलों
पदा@@
Port
porting
ult
पुन@@
कानूनों
atomic
browser
adult
architecture
minor
eastern
आंकड़े
key@@
Sign@@
उत्कृष्टता
TO@@
सत्यापित
pillars
receiving
Jam@@
yas
evident
पशुओं
82
prot@@
समापन
शादी
prior
उपेक्षा
उड़ीसा
रूपा@@
effectively
pe
reckoning
kin@@
प्रांत
cricket
Nothing
ude
determine
printer
लीन
Ed@@
Meeting
फेंक
अलं@@
मस्जिद
alls
human@@
Hearing
US@@
gam@@
मोटे
voluntary
fallen
ef
Christian
oriented
त्वरित
शक्तियां
वैसी
चक्र@@
सम्बद्ध
questioned
ambi@@
Sita
ड़ता
कथा@@
संवेदनशील
faculty
pet
worst
ress
प्रदत्त
जयंती
ba@@
ज्या@@
श्वेत
लाय@@
माप
शनों
Support
व्यक्ति@@
रहकर
झू@@
Selection
पढ़ाई
रद्दी
abl@@
प्रासंगिक
नज़@@
grade
claims
Dr
Hence
traffic
symptoms
पोर्@@
od
ored
स्वाधीनता
cred@@
चरि@@
ख्या@@
op
investors
ions
Parliamentary
pra@@
गिनती
van
Jay@@
titude
तुर्की
आग@@
roots
arrangements
क़ा
,@@
yellow
भड़@@
depth
diet
पूर्ववर्ती
पथभ्रष्ट
enterprise
पीड़ा
calcul@@
obvious
आएँ
भ्रा@@
सर्वथा
legislation
बानी
dia
धिक
rid@@
OS
Pla@@
traditions
परेशान
चोरी
तर्@@
वैयक्तिक
गाने
brief
जाएँगें
क्रांतिकारी
aria
hs
गुणा
Reg@@
झुठलाओगे
भड़कती
raising
anim@@
नं
egg
201@@
header
eating
दानी
lights
यस
स्ता
दायक
sco@@
Configure
cloud
औज़ार
Selected
umin@@
ED
refer
अजीब
तुक
seeks
derivative
ignorant
enhance
imagine
आवरण
अतएव
ignorance
prepare
पड़ते
hab@@
bat@@
wrath
प्स
परिस्थिति
tured
realised
कार्यालयों
shr@@
distinct
modified
y-@@
निर्माता
मंजूर
categories
Hinduism
drowned
सेवा@@
essentially
directions
Document
एजेंसियों
क्य
Dal@@
बाइ@@
पक्षियों
personnel
स्टि@@
whomsoever
65
cloth
salt
मराठी
yours
²@@
प्रशिक्षित
proportion
अगरचे
Working
lesson
नमक
itary
मजदूरी
मारी
धनराशि
त्रा
pit@@
pul@@
Bul@@
factory
नियंत्रक
आँकड़ा
जरूरतों
stly
clothes
Sang@@
चिन्ह
streams
stry
conceal
Ramayana
lord
derived
audit
प्रोटीन
ओपन
कराता
णु@@
spar@@
टिप्प@@
किमी
s.
ईयों
Way
illa
ज़र
tourism
तमिल
छोड़ें
dy@@
वाना
रूपये
आयकर
discussions
Nat@@
injury
ऊंचे
विशेष@@
neck
बरसा@@
लु
हवीं
southern
आदि।
खर्@@
à¤@@
Link
कमा@@
bes
फिरते
arrogant
फ़ो@@
Tur@@
kings
teeth
किर@@
बहन
आकर्षण
लगने
accompanied
पर्व
फल@@
zo@@
वित
leaf
प्रबल
जिंग
IF@@
Action
contributions
पत्र@@
broke
dness
रिज़र्व
ऊँची
companions
Hor@@
दांत
Governance
tile
छाँ@@
द्य
ye@@
पहुँची
बतौर
जाए@@
सला@@
बाध्य
जागरूकता
Minimum
रें
हममें
cra@@
excess
immense
देखा।
Sometimes
Nag@@
Apart
contrac@@
कते
क्
प्राप्तकर्ता
निस्@@
Kav@@
ela
inity
feeding
ough
डाक्टर
ired
liqu@@
Truly
बड़
ल्ट
ञ्@@
के।
चढ़@@
Shiva
ऊँचाई
shot
vegetables
urge
सैन्य
बालक
autom@@
encouraged
dependent
उर्@@
णन
wo@@
ऊर्@@
लाएँगे
माध्य@@
कमज़ोर
पचास
मूल@@
clubs
Universities
प्रचालन
viol@@
साझीदार
Australia
tremendous
सुधार@@
Cabinet
सुनाई
missing
दरों
यं@@
arranged
यर@@
crores
Energy
तुर्@@
Run
tel@@
Foundation
creates
managed
शब्द@@
दर्शी
प्रतिलिपि
पोत
कहा@@
संचित
पुल
ney
मिलेगी
VER@@
पेशी
ave
sad@@
win@@
व्याख्यान
organisms
चढ़
eas@@
Constellation
operative
extreme
Bab@@
possessed
मानकों
distinction
ich
cent@@
अनुक्रम
grand@@
pic@@
mark@@
uting
निवारण
ंतर
but@@
गेंद
offering
प्राधिकृत
feelings
ंभ@@
ava
उठे
Himachal
recommendations
Na@@
इलाकों
quick
ट्यू@@
असंभव
humble
Up
प्रती@@
झग@@
favours
टाल
तरल
Light
interc@@
अज्र
दस्तावेजों
फ़त
ector
Auto
याना
¸
Men
recall
Prov@@
प्रवाहित
kg
OC@@
शाली
गंध
delight
III
हॉ
हलाल
Executive
ज्या
सद्@@
poly@@
substantial
transformation
innovative
डाटाबेस
predic@@
Under@@
सुचरिता
हुई@@
स्ट्रे@@
आधे
लोकसभा
क्रोध
अध्यक्षता
मतभेद
learnt
een
Tel@@
करनेवाली
breasts
ep
अल्प
ula
consequences
Schedule
प्लेट
पड़ेगा
belied
mur@@
uity
AB@@
LA@@
affection
illu@@
परी@@
recovery
operate
proc@@
listed
सिद्धान्त
मित्रता
tant
sincere
tun@@
Soon
नाहक़
सूजन
computing
मुह@@
Remote
रिजर्व
च्छ
migr@@
broad@@
रक्षक
CP@@
shed
ा।
दशकों
पाये
telling
War@@
नतीजा
rad@@
fal@@
02@@
commonly
offspring
sy
div@@
stor@@
loose
बहादुर
dog
Prasad
मंत्रियों
constructed
slow
Medical
CC
psych@@
दूत
सिन
आएगी
वेब@@
रोग@@
मेज
constitutional
dreams
34
rank
निचले
claimed
Play
Aaron
pairs
representatives
breast
शिया
believer
Sen@@
Previous
बढ़ता
दक
ठहराया
अप्रत्याशित
org
ल्ली
install
mot@@
plane
व्य
वत्
्यू@@
update
उन्नयन
¨@@
asi
तीसरी
instruction
lessons
sites
इस्पात
80@@
multi
nest
Insert
यानि
client
caught
GNU
Leave
खुल्ला
काफिर
ified
generated
removal
वाह
Always
computers
परक
Said
खतरनाक
finding
85
sharing
हू
comfort
हस्त@@
dealt
Tab
Nam@@
बचे
causing
studied
elephant
ech
वरण
मजदूर
स्था
अन्दा@@
ज़िम्मे
midst
कैश
रास्त
min
बालों
draft
्यो@@
seas
बोलने
काना
बसव
कोने
imag@@
हकदार
सं
organic
फलों
स्के@@
deities
द्व
ठे@@
ड़े@@
टते
aking
rose
पशु@@
निर्देशों
danger
पहुँचने
alike
टर्स
budget
दूँ
मण्डल
सीख
alternative
स्टेट
ession
पें@@
astic
संकेतक
कारी@@
virtue
Having
Bhar@@
फ़रमा@@
संग्राम
parliamentary
कराई
printing
chandra
securities
²
हारून
prophet
noise
आंखों
opposite
spe@@
क्षैतिज
exalted
eminent
टैगोर
Sun
Tal@@
achievements
विदेशों
top@@
Come
cultivation
ध्या@@
अल्प@@
constantly
छिपा
सितम्बर
शर्तें
पंच@@
व्युत्पन्न
technique
tract
Pandit
टॉगल
cast@@
fro@@
सृजित
hast
Mahabharata
निवेशकों
discovered
Lu@@
चखो
रजिस्टर
मशी@@
clo@@
तना
liability
लगी।
moves
निपटान
प्रारम्भ
किस्@@
बोर्@@
uation
जहा@@
मंड@@
क्लो@@
गोल@@
ट्रां@@
बारह
partition
clean@@
driver
reg@@
hosts
मुद्रित
RI@@
Hel@@
तला@@
cancer
batt@@
टेनिस
फूलों
by@@
eh@@
सरों
किन्हीं
छिपी
fearing
sat@@
होटल
attended
हैं@@
log@@
strengthening
grains
गीतों
grass
invoke
सैनिकों
सजा
अपराधियों
infinite
Ku@@
किताबों
imposed
मौजिज़े
गौरव
iding
विन
घाट
rid
बत
doom
Game
Sch@@
Marathi
दिखाते
सुझा@@
अनुमोदित
चतु@@
प्रद
fever
possibility
street
Sim@@
फ्रांस
कारगर
Arab
कॉन्फ़िगर
bot@@
France
संक्रिया
flight
lawful
ब्रह्म@@
summary
participate
largely
scar@@
फायदे
lip@@
घोड़े
despite
regularly
Yusuf
cards
mood

समायोजन
lady
route
छुपाएँ
खोजने
northern
ker@@
ora
आन@@
proceed
अफ़@@
ज़रूरत
आजकल
Mak@@
रहस्य
anas
बहि@@
Related
.2015
प्रतिबंध
à¤¸à¥à¤@@
itted
थल
tube
consequence
ब्राउज़र
marry
चाँद
treat
जर्@@
solid
निराश
पक्का
sequence
आधा
fasc@@
Maharaja
सरा@@
chose
requirement
Thamud
टता
naturally
नमा@@
acing
आशा@@
Cre@@
depend
tness
शान
समस्याएं
produces
हौ@@
finds
customs
चिंतन
तकलीफ
eth@@
lat@@
केस
appoint
गणतंत्र
मानस
विभेद
eter@@
बग
अधिकृत
mac@@
विद्@@
companion
indi@@
अस्वीकार
Mur@@
उत्सव
Should
secondary
attain
सरी
Ul@@
Punjabi
समावेश
स्
र्म@@
प्रेरक
अनू@@
इल
कार्यपालिका
worker
वनस्पति
प्रभाग
लाभा@@
ola
pound
लापन
Ste@@
प्रावधानों
testing
happening
representation
Vice
totally
ett@@
seats
united
commands
बडा
पाकर
बाढ़
consumers
सिद्धा@@
rab@@
algorithm
माहौल
त्त
ained
springs
Cro@@
plan@@
Five
counter
Gita
mouse
pha@@
stimul@@
करूँ
tourist
छः
ईंट
सरो@@
shrine
संकल्पना
निश्च@@
गुज़@@
positions
guidelines
ढ़ा
amm@@
ENT@@
recommended
द्
भारती
बख्@@
पुरूष
succ@@
familiar
CP
करवा@@
मर्द
opposed
Mas@@
जायेगी
पूर्णतया
somebody
capit@@
favor
Money
dawn
ज्यादातर
lasting
परहेज़गारों
1956
00@@
डिया
careful
नज़दीक
liquid
Az@@
organism
इलेक्ट्रॉनिक
कहानियों
बांग्लादेश
स्त्रों
शुरूआत
कच्चे
prominent
akh@@
टीवी
technological
generate
विन@@
bits
रिकॉर्ड
प्रतिज्ञा
explo@@
दाई
अस्थि
arising
represented
BY
त्या@@
tin
scal@@
tism
reaching
Ret@@
वन@@
dre@@
prh
काग@@
presentation
arise
criticism
पुस्तकालय
gic
contributed
Kap@@
Industries
TE@@
जाएंगे।
वर्तन
plo@@
सरदारों
Majesty
walking
क्लिपबोर्ड
Adv@@
ution
आकर्षक
व्रत
Empire
posing
पोस्ट
.0@@
खाई
रेट
वह@@
काई
वैष्णव
फ़े@@
लाखों
डाली
roof
ensuring
ज्ञ@@
closely
दीजिए
zed
Greek
मोटर
Sol@@
करते।
वाक्य
Basava
panel
वर्गीकरण
BO@@
एकत्रित
vehicle
turing
closer
MB
sid@@
लंबित
Agricultural
तम@@
वृत्@@
zz@@
execution
ंद्र
venture
अटल
२००@@
अनुप@@
अफ़सोस
grief
tem@@
ranks
कूट@@
विनियमन
tual
him@@
रचना@@
fate
वरन्
OL@@
मोहलत
दुकान
Bag@@
दाद
नेताजी
नार@@
Test
2.@@
एह@@
ultimate
स्य@@
55
Mem@@
पोरेट
tender
विवरणी
खरीदने
हिस्सों
regulations
बनाती
liter@@
दीवारों
देगी
कबीर
employer
ियां
multiply
flo@@
ections
miles
fault
keyboard
लेखों
sch@@
30@@
शास्त्रीय
introduction
ऊंचा
entrusted
protocol
हमला
डियम
bills
खासकर
खातों
pers@@
अला@@
appellant
रजि@@
exceed
परहेज़गार
मज़े
.2016
समू@@
Order
uration
ne
अन्जाम
वात
बदलना
नली
hin@@
श्त
निर्वा@@
श्या@@
मंजूरी
तारों
hard@@
ories
Maximum
मजबूर
उपज
civilization
rely
amed
अवकाश
यथार्थ
ced
Member
childhood
करणों
Automatic
ride
भाइयों
ज़बरदस्त
arrested
dered
परिकल्पना
carbon
ao
esting
चारा
anga
assi@@
उपलब्धियों
इमारत
HE@@
habit
छू
slaves
देनी
novels
honoured
debate
बढ़ाना
Read
निग@@
Chat@@
CT@@
woe
ढ़े
पांच@@
Siva
तालिका
declare
strategic
64
अकादमी
स्या@@
ots
acceptable
सोचने
sus@@
www.
seat
दुर्लभ
पाओ
killing
न्द्र@@
onia
न्यू
Saty@@
दादाओं
fifth
Islands
Gener@@
नाटकों
aus@@
जाओ।
ungrateful
–@@
ंगु@@
सौंदर्य
chi
Mohan
झुठलाते
Almighty
अधिकार@@
resulting
पू
adopt
लायक
ड़ो
साक्षरता
restore
उपग्रह
याक़ूब
break@@
Space
describe
निकी
फत
corner
ins@@
42
क्तता
loc@@
स्राव
threat
णी@@
congratulate
सीन
foc@@
assuredly
हक़ी@@
correc@@
Trust
घेरे
खुल्लम
ef@@
कॉन्@@
Center
भुला
exec@@
लघु@@
PA@@
मुकाबले
मिन@@
Oft
needy
ख़ि@@
सूरत
हिमा@@
haz@@
CR@@
Sun@@
सबकी
ब्रह्म
स्वयं@@
goals
preparation
दाताओं
Land
differ
partial
Ad
अधिसूचित
प्रशि@@
tested
सरीही
चाहि@@
fam@@
Gi@@
कुफ्फार
Disc
4.@@
टियां
spo@@
aimed
क़्योंकि
स्कर
abol@@
एहद
tal
पाँव
मला@@
ams
yer
ग्रह@@
कोटा
पुस्त@@
oper@@
integration
दशमलव
29@@
dignity
Lanka
discuss
घटना@@
Bro@@
closing
लौटने
पादप
ners
inhabitants
putting
pt
वण
विधियों
progressive
procedures
slowly
प्रकोप
Web@@
tery
जला@@
Lal
णुओं
पैरा@@
Environment
permanently
sheep
नन्@@
kh@@
à¥à¤@@
त्मकता
desc@@
mut@@
Phone
humans
किलोग्राम
metal
confined
ऊँचे
पढ़ा@@
circle
चाहो
दिखाए
convert
itis
mischief
pleases
दाऊद
बायो@@
हैसियत
adding
तुओं
इधर
स्थलों
क़ी@@
Middle
उत्तरदायित्व
उल्लिखित
bears
emerging
We@@
enterprises
imported
Sy@@
separated
फं@@
revolutionary
rav@@
deaf
विटामिन
सता
सुनी
Railway
संचरण
म्प
टेलीफोन
Sad@@
जत
इष्ट
boat
newspaper
रूपरेखा
इजाज़त
सर्वश्रेष्ठ
मेहनत
Som@@
सुनवाई
होंगी।
muscle
rapidly
क़्त
lin
औषधि
पुर@@
किनारा
आकृति
ट्यूब
empire
संवैधानिक
दह@@
वरीयता
भागीदार
प्रतिफल
Britain
Sea
मल्@@
नुमा
maybe
सर्वज्ञ
pr0@@
हथियार
Sup@@
wheat
uring
manufacture
09
पत
क्तियों
supposed
forty
तत्कालीन
ठहरा
जीवा@@
consisting
oaths
औजार
मेन्यू
समीकरण
माँग
मामूली
privilege
decade
स्नातक
ordin@@
दूरसंचार
involves
07
परिषद्
मिलन
अंतः@@
endeavour
पाती
ॊ@@
ceremony
रहू@@
रेशम
Sector
priv@@
प्रभा@@
अपितु
ख़ुश
म्ब
हल्का
dish
Companies
hil@@
grievous
करी@@
Chand
Uni@@
विज्ञापन
खोला
permit
Legislature
responsibilities
ader
day@@
Pe@@
सुधारने
सः
योगी
thi
sales
क्री@@
जिंदगी
रोध
नतम
नही@@
पिक
incident
जाहिर
धारा@@
अवधारणा
घन
टस
भव@@
falling
Vic@@
बनाया।
threw
Wikipedia
जानों
छोड़ने
SC
अरे
manage
तनाव
मुहा@@
अवयव
क्ल@@
Bad@@
islands
sanction
मुकदमे
Cer@@
VE@@
स्मारक
चक्कर
rang@@
Buddhist
headed
स्पी@@
internet
आस्तियों
Creator
sym@@
ंगे@@
perfection
bath
permissions
\\
रेशन
Ann@@
gh
इंजीनियरिंग
Contacts
सर्वप्रथम
fed
फरिश्तों
ib@@
वेग
decreed
repeated
दीर्घ@@
influenced
XML
ATE
quot
crow@@
मिलेगी।
ज्य
नेत्र
हरित
ेंगे।
कर्ण
Quality
omet@@
कार्यकारी
aram
नियोजन
वर्क
राजाओं
Labour
knoweth
्यता
acquisition
serving
distress
अवरो@@
coc@@
aci@@
Three
Vij@@
attribute
इसहाक़
ऑफ़
Recei@@
Region
accessible
ideals
लाल@@
लपे@@
Principal
जायेंगे
संग
tain@@
disputes
à¥à¤
्रो@@
Green
१९८@@
भटक
Throne
विडियो
Loading
mir@@
कृत@@
अन्य@@
pot
summer
ians
protected
eration
नमूने
rag@@
अपीलार्थी
बहा@@
Sucharita
quiet
फ़र@@
चाह
माननीय
लक्ष@@
wholly
wit@@
संकलन
पाए@@
बृह@@
Fo@@
पो
USA
biggest
मास्टर्स
होश

percentage
चतुर्@@
नियाँ
एण्ड
Update
integrity
Stop
Engineering
Place
छपाई
suc@@
दीक्षांत
भुज
German
जह@@
घरवालों
multipl@@
guarantee
1948
Additional
उज@@
सौभाग्य
सेकेंड
तना@@
Ind@@
Standard
Bra@@
मोड़
indicate
स्विच
वाही
लौटकर
experiences
मैत्री
maintaining
दरवाज़े
temper@@
contrary
loves
पब्लिक
मतों
ades
Faith
UN
नींव
चित्रों
होते।
जाइ@@
gained
ठहराते
वसा
शित
दरी
रोज
पुर्@@
सकेगी
:@@
emerged
आनु@@
ख़बरदार
जोड़ना
Election
किराया
yesterday
das
रोशनी
आंक@@
व्यास
गतिशील
ईरान
विषा@@
गोली
à¤ªà¥à¤°@@
trend
RBI
hence
योगि@@
पीडीएफ
सांस
photo
फीस
वारी
Red@@
shell
lar@@
बच्चन
5.@@
रखरखाव
converted
शह@@
प्रतिवर्ष
lake
फट
istan
स्थापन
नियां
gue
लौटा@@
पहुंचाने
नकल
industri@@
sla@@
passage
MM@@
ject
York
पूर्@@
बाज़ार
lig@@
ner@@
बताना
णः
मुहैया
पायी
atives
sand
डॉक्टर
separ@@
ention
एम्@@
patients
क्वा@@
दूँगा
layout
पंख
सहेजने
definite
terror
श्य
remembered
ण्य
घमंड
Jag@@
subscribe
प्रिय@@
दर्शा@@
अध्या@@
SE
Gov@@
winds
conclusion
नेत्र@@
nerve
Sin@@
रोचक
आबाद
monitoring
धीमी
ushing
अंगों
sports
dress
ident
silent
plugins
सलाहकार
परिणामों
सहानुभूति
पहचा@@
compreh@@
salary
transgressors
नक@@
स्थगित
protector
कर्ण@@
ठाकुर
unaware
केन्द्रों
पहुंचे
emotional
George
द्रो@@
indigenous
illness
constitute
advertis@@
शय@@
winter
दुः@@
Judge
बेहद
hydro@@
पुष्प
amounts
सें
न्द@@
आस्था
decline
Format
अफगानिस्तान
बजाए
ailing
tour
contin@@
प्रभुत्व
प्रतिबद्धता
कालिक
विख्यात
पूर्वोत्तर
ड़ें
imagination
mixture
Ter@@
ॅा@@
सभाओं
योज@@
सने
स्वाद
characteristic
रूपांतरण
module
short@@
oted
तरीक़े
PC
foot@@
keeps
उपभोग
legislative
झुठलाने
मैत्रीपूर्ण
हज़ार
सुलेमान
करें@@
topic
Prof@@
rol@@
Background
महफूज़
महान्
हिन्दुओं
पाओगे
किलो
इंदिरा
गां@@
समाजवादी
fifteen
sible
ओगे
महासागर
grounds
respond
दरवाजे
Net@@
छिपाते
भत्ता
Ltd
प्पा
Spirit
पड@@
मधुमेह
शाह@@
सला
fier
सालेह
मज़दूरी
खुशख़बरी
Rights
खैर
बगल
cum@@
ke@@
worse
प्रभाव@@
कलन
handle
Koran
mad@@
उत्तराधिकारी
Ke@@
किले
pictures
घेर
gro@@
इनको
tells
सिया
succeeded
combined
इलाहाबाद
rob@@
कमि@@
सड़कों
ताज़ा
गर्भ@@
समि@@
rela@@
itra
और@@
केन्द्रित
arrive
reaction
विश्ले@@
Fin@@
ताब
à¤à¤°à¥à¤
संतुलित
Directory
raj@@
आगमन
क़ब्ल
sounds
hot@@
द्रव
ID@@
परहेज़गारी
रुप@@
Cy@@
slo@@
युवक
अपमान
Author
सुदूर
च्च@@
vers@@
द्य@@
क।
हार्डवेयर
innocent
everywhere
NI@@
quit
Toolbar
जय
डेटाबेस
avo@@
मारने
कारा@@
asses
अश्@@
organs
गड़@@
Zoom
bond
collaboration
आवृत्ति
mature
जाएँगे।
inclusive
sanc@@
historic
deceased
Innovation
ँगा।
धर्मों
performing
repe@@
मुशरेकीन
programming
प्राणियों
फूट
Media
throne
उपर्युक्त
रात्रि
hood
participants
à¤°à¥à¤@@
à¤@@
चिल्@@
ble@@
cle
On@@
hardship
साझीदारी
कुर्@@
Compl@@
।@@
Protection
डालो
symbols
superior
erial
मिथ@@
peti@@
breaking
साकार
अवगत
2,@@
0s
44
CS@@
fts
गरों
defeat
lah
Chennai
्रे@@
new@@
क्ता@@
दानों
अंतरा@@
thread
बरस
ग़ु@@
सड़@@
एक्सचेंज
techniques
Beneficent
ought
वक्तव्य
list@@
vote
eping
cus@@
ministers
dynamic
रने
rendered
निस्बत
निर्ण@@
ruler
एजे@@
खोलकर
चलन
सका।
पैदावार
pig@@
indicated
MI@@
गिर्द
शपथ
क्रमांक
भेजना
consent
कू
Egypt
ok
bigger
क्षाओं
channels
इसमे
श्रद्धा
essed
tran@@
weakness
शर
resolve
convinced
wished
proposals
जापानी
मूल्य@@
झी@@
retribution
Child
doors
नौका
भीड़
प्राय
suggest
बातिल
Main@@
ota
पूजते
Love
योजना@@
sing@@
Were
सभा@@
भाग्य
distant
नींद
periods
cease
खिसकाएँ
धोखा
परम्परा
त्मा
entity
सता@@
pen
काबा
’’
propor@@
वेल
diamonds
mit
aching
उर्वरक
समर्थक
र्ण
परियोजनाएं
ept
सेना@@
appreh@@
कलाम
सेनाओं
सर्ग
gal@@
जना
prec@@
ost@@
à¤¯@@
रूचि
यिक
surrender
भव
बरबाद
clipboard
कोयला
ऍं
Krish@@
अनुस्मृति
entering
चेहरा
दरख्त
संवर्@@
इंजन
classical
colors
ven
विलोपित
Gar@@
दृश्य@@
à¤¼@@
weapons
कैमरा
मिले@@
tail
मरियम
शेख
Any@@
Er@@
फिल्@@
पढ़ी
MA
Islam@@
strengthened
fears
चलाएँ
वरों
Thy
सोचता
fting
याल@@
installation
08
ache
गार@@
enced
56
Sikh
वां@@
otic
compassion
newspapers
होस्ट
कानों
testimony
Sul@@
wel@@
ारी@@
वर्तनी
Microsoft
अनुभूति
wil@@
quarter
ema
ment@@
डिब्@@
उलट
अर्जन
Sym@@
alize
विस्तारित
authorised
फ्ट
बला
silk
engine
shade
incurred
poses
उन्मूलन
gle
aint
यूसुफ़
मेनू
entrepreneurs
बनाओ
गरी
घने
cheque
Again
attained
स्वच्छता
1996
shelter
दौरा
देशवासियों
अनुमानित
पतन
commodities
frequently
Paper
interaction
subsequent
pack@@
bun@@
वाने
वन्य
stuff
अक्टूबर
नाएं
प्रक्रिया@@
DO@@
सिल
बेचने
ree
bug
जहाँन
द्रु@@
pp@@
मग़@@
उपखंड
reserved
हीनता
helping
ruling
statements
susp@@
बाएँ
à¤¡@@
हस्तांतरण
निर्माताओं
सादा
etting
nearest
गियों
ख़री@@
fast@@
मरा@@
radiation
निशान
Personal
sh
क्शन
Moun@@
पहा@@
implementing
eral
रुजू
ढे
metres
Wil@@
Reminder
residence
Mut@@
प्रतिनिधियों
Access
quad@@
Professor
विधा
श्रमिक
जाम
oss
जर्मन
Air@@
consul@@
स्थिरता
जैविक
चारि@@
devi@@
ification
nath
achieving
राय@@
toolbar
संतान
Appl@@
राजकुमार
experienced
श्रो@@
माफ
Telugu
4,@@
साझेदारी
ounding
जीवाणु
जंग
अधिकाधिक
अनुज्ञात
conferred
pledge
खनन
izes
दमन
भगत
net@@
प्रवास
conservation
कोशि@@
Black
declaration
२०
struc@@
carries
despair
perceive
Oper@@
सोसाइटी
विचारधारा
खपत
tax@@
संदाय
Title
निरन्तर
ओ।
thick
हिंदुओं
collective
जता
संघीय
depic@@
dial
itate
परे@@
महाद्वीप
reduction
उपाधि
निकलते
समकालीन
acceler@@
निर्भरता
snow
director
primarily
सिद्धि
itting
साँ@@
सूर@@
बाई
varieties
ety
lessness
ब्रैसेरो
DS
Bar
रौ@@
Form
Eff@@
आतंकवादी
Pop@@
concerns
tab@@
Organization
oon
Speech
गुलाम
रंगों
competitive
intention
पोषक
अपी@@
fairly
तन्@@
tful
नीत
pertaining
अन्याय
dir
peaceful
I.
Resource
Valley
संकाय
बुला@@
जानेवाले
अनन्त
बंग@@
barrier
puts
depending
ज़लील
farmer
theatre
सुधारों
healthcare
सेवन
stability
local@@
rat
रिमोट
societies
readers
Sum@@
ढी@@
निर्णायक
52
monthly
AD
shor@@
akes
Temple
अरु@@
आन्@@
ज्यादती
apparent
यूनि@@
witnessed
gross
आकस्मिक
हड्डी
livelihood
tious
sav@@
involving
enhanced
मजदूरों
आधी
aining
वग़ैरह
0.2
परेशानी
स्वरुप
reserve
राई
सिटी
पर्यटकों
आद@@
Total
स्टार
lakhs
ॆ
audience
Med@@
अध्यापक
जॉन
logical
मस्जि@@
सिफ़ारिश
Main
नीतिगत
हरेक
une
झोंक
games
tip
fri@@
प्रयो@@
Identi@@
bondmen
Private
पां@@
wal@@
Device
awards
binding
हुये
Tu@@
नवीनतम
time@@
Himalayas
True
ser
purity
Aj@@
Position
यौन
notified
females
easier
कमीशन
celebrate
अनुदेश
बारिश
dom
05
whis@@
तब@@
Ori@@
वाद@@
अत
attractive
elev@@
मानव@@
gible
कान्@@
grants
ेगा।
wom@@
करता।
संदेय
वु@@
निर्गम
मॉड्यूल
नियोजित
fav@@
Defence
Au@@
scattered
Bangalore
उठाकर
Preview
वाँ
प्रणा@@
serv@@
inten@@
अवज्ञाकारी
hole
नारी
मिंग
fulfil
bin
asha@@
etary
शिल्प
पेट्रोलियम
डऋ@@
धमकी
नाना
मास्टर
लोगे
आगरा
निर्देशित
resulted
मज़@@
रखा।
39
Desktop
mistake
विक्रेता
युक़्त
शो
tribute
सौंप
खण्ड@@
सौंपा
royal
vary
गली
ishment
युक्ति@@
fish@@
meters
urg@@
लोप
flesh
enjoyed
eu@@
अनुशासन
stu@@
51
ल।
stress
non-@@
कमेटी
दोषी
bid
विं@@
younger
penet@@
essors
definition
Behold
shar@@
कृमि
नुक़सान
Mang@@
किताबें
somewhat
गुजराती
itory
Follow
paying
पेय
settle
bookmarks
यंत्र@@
hunger
thesis
सुर
LI@@
watching
कोट
glass
मो
जिसमे
डाइ@@
care@@
conversion
OR
Iran
1992
abundance
newly
mud
bacteria
ंज@@
Ass@@
outcome
pest
प्रबंध@@
दायित्वों
मनोरंजन
download
transportation
warnings
गार्@@
प्रगतिशील
प्रयोग@@
मस
कपड़ा
ruled
rope
पैनल
सदनों
ashed
एँगें
प्रवासी
कल्प@@
anywhere
genus
meal
श्रु@@
visi@@
लक्षणों
à¤à¥
ison
anniversary
मनाया
वाक़िफकार
तारे
कार्यकलापों
जाननेवाला
cam@@
आशुतोष
Mahal
Young
पाद
रखो।
Short@@
keen
गॉ@@
eous
ouse
नाई
पास@@
yam
developments
Object
अन्तर्राष्ट्रीय
lip
impression
वृत
forecast
dram@@
परिचालन
दवा@@
recipients
grave
08@@
विगत
उपहार
ग्रिड
Dam@@
मती
edit
अवस्थित
घातक
Aud@@
पाबन्दी
inserted
हिल
farming
entries
modify
घा
plaintiff
exit
खुश@@
ढूंढ@@
ured
golden
locks
सन्देश
वार्ता
सु
ढूँ@@
t.
collect
चमक
soci@@
कम्प@@
angel
Bills
ya@@
पूछते
कार्य।
ip
Ka@@
Gang@@
Gujarati
Allahabad
Devi
Common
twain
सुनो
tionary
नस
earliest
parameters
चन्द्र@@
Ru@@
इन्होंने
mailing
चूक
appe@@
varied
consolid@@
पड़ोसी
लिए@@
Anjuta
शर्@@
pretty
tests
बरकत
é@@
jinns
surrounded
constitu@@
cool
ख्वा@@
iti
ells
ऑपरेशन
financing
प्रबन्ध
Solomon
stration
झिल्ली
क्षय
न्त@@
dramatic
ब्या@@
preserve
nodes
गर्भ
पैरों
खंड@@
धूल
exposed
यित
बही
बांध
devil
Apply
calf
लैण्ड
अह@@
शत
कना@@
डालना
यास
बरसात
खरीद@@
organ@@
म्प@@
हिन्@@
Loc@@
pick
सार्थक
धोखे
eff@@
क्षणों
बैं@@
बीन
thankful
Reply
lamp
dened
tam@@
सशस्त्र
अद@@
ull
loved
Es@@
replaced
मारि@@
गिरा
conventional
silence
कठिनाइयों
कोटि
असत्य
MB@@
प्रवृत्त
answers
Rename
लेगा।
HT@@
equation
ural
Va@@
स्तम्भ
शेर
46
adv@@
आन्दोलन
Top
रूट
scheduled
thin
वर्धन
मुख्यालय
ego
आईसी@@
Glory
फ्लै@@
प्रजातियों
फ़ोन
रुक
Coll@@
Cri@@
ड्यू@@
खर
vertical
serves
chil@@
मुद्रण
आज़माइश
exclusive
domin@@
मिटाने
PG
रहस्य@@
संग्रहण
रुए
निर्वाचित
11.@@
सत
धता
nearer
Lim@@
Area
where@@
लेखापरीक्षा
vati
invented
read@@
ज़िम्मेदारी
तह@@
विद्या@@
प्रस्तु@@
Whenever
सुसंगत
imal
forbid
musical
फ्लो@@
gen
आवश्य@@
precious
चंद्र@@
जाय।
Regi@@
घटा
न्यायपालिका
Agra
जज़ा
आश्रम
Width
47
कहकर
disorder
प्रयोगशाला
gates
मचा@@
agreements
wilt
महत्@@
aves
इंतजार
render
नगरों
Switch
wave
प्रतिस्पर्@@
रिश्@@
amin
faster
mod@@
sanctioned
assured
कड़े
alog
backward
AD@@
जाना।
150
बनते
castes
ruin
à¥@@
blessing
stronger
अवसंरचना
Airport
dangerous
समेकित
sustained
tening
ert
1997
फोटो@@
ेगी
Open@@
3.@@
फ्र@@
पारदर्शी
hundreds
अनुभवों
author@@
à¤@@
calculated
Goa
inn@@
हमले
ळ@@
Benefit
ग़
hyper@@
arrest
मिली।
टेली@@
cache
deal@@
Departments
payments
UT
बताए
क़ी
mand@@
av
Publ@@
लड़कियों
consultation
gy
1000
bestow
संक्षेप
गोवा
टाइम्स
borne
corresponding
collabor@@
eld
ok@@
समझाने
respon@@
खींच
बरसाया
तस्बीह
पर्या@@
tribes
oli@@
आंकड़ों
commission
skilled
हुकुम
Jacob
उपभोक्ताओं
supporting
bonds
द्रा
noticed
नानक
Rule
दरा@@
ographic
bus@@
एख्तेयार
uck
rooms
सिन्@@
Family
ग्रन्थ
tom@@
Zone
india
lowest
घाव
न्ड
पढ़ना
काटने
moun@@
लची@@
विकार
गिरोहों
prevented
निम्न@@
बूझ
समझा@@
models
निर्वाह
uous
कीमतों
क्षमताओं
faults
वेश@@
संतोष
nia
omed
Indira
intellect
oured
MP
नीतियां
realized
Configuration
prince
क्ट्र@@
ेक
aksh@@
गर्दन
संस्थागत
Monotheism
क्ले@@
Ur@@
पर।
तारा@@
अपवाद
alarm
Vas@@
heav@@
शव
छापें
Header
iti@@
pool
void
प्रजाति
sar@@
Several
कहती
Solar
संख़्या
fun
यथास्थिति
Until
virtuous
returning
ashes
esses
उभार@@
fees
va@@
विशेषाधिकार
person@@
spreading
joining
fron@@
01.html
Sid@@
लाइब्रेरी
आधिकारिक
Netaji
किसने
forgot
6.@@
दुखी
attract
motiv@@
SHRI
पड़े।
आश्वासन
ook
oot
smen
रखें।
sport
Lake
atures
68
खुल
Direc@@
nearby
स्थाई
thank
characteristics
वर्षो
bliss
inations
ascribe
राजमार्ग
eller
भ्रम
ेय
अवतार
owed
agn@@
emplo@@
फसाद
dates
freely
उन्नति
सूचीबद्ध
closure
तूर
regards
गर्भाशय
rest@@
अर्पित
Computer
लः
99
मुताबिक
Eat
चिड़ी
प्रदाह
णित
ight@@
ंजन
conversation
सूचनाओं
फॉर्म
tag
disgrace
NR@@
ड़ी@@
ऊन
Sign
rever@@
Cat@@
तेज़
optim@@
sinful
Investment
रंगमंच
emia
उद्यमियों
Log
o-@@
enjo@@
अहिंसा
तौरेत
ht@@
extensive
sle@@
altogether
बो
deduc@@
इंटर@@
camera
डालर
assist
मंत्रालयों
शान्ति
क्ताओं
बदलते
spades
evolved
visits
रोज़े
Employment
patiently
ce@@
amendment
तारी@@
iling
चिर@@
supports
प्रजा@@
ठहरे
assumed
अपूर्ण
PDF
Rao
मौके
cultiv@@
अर्ध
Back
glorify
इंट
प्रोग्रा@@
ix
दायि@@
curr@@
स्ति@@
दौरे
यौ@@
नान
ज्वर
resistance
Russian
lam
गुम
Kol@@
cham@@
DNA
abi
High@@
sman
किला
Nagar
प्रोफ़ाइल
टेप
Hand@@
eem
इच्छुक
विवर@@
aring
मक्खी
afford
द्वीपों
correctly
continent
निया@@
क़बूल
भेज@@
Rom@@
shift
पंथ
ंत@@
gia
रोगियों
aph@@
कामयाबी
lateral
fru@@
यात्रियों
G.
पेशेवर
undertake
tively
variable
अप्रिय
कृष्ण@@
modern@@
references
tend
teenth
तान
नाय@@
मौज़ूदा
fic@@
Preferences
eled
लाहौर
सौदे
à¤à¤@@
Father
बदौलत
भटक@@
hardware
literacy
रविशंकर
पहुँच@@
mun@@
43
66
रोक@@
Basic
रूए
लॉक
आगामी
sharp
एंव
योजक
nav@@
यण
occupation
obli@@
villagers
artificial
implement
ONS
पढ़कर
storm
a.
अभ@@
thri@@
किनारों
दृढ़ता
तमा@@
Without
हिम्मत
विवेक
गुरू@@
breeding
जिक
दुष्@@
equivalent
डल
हड़@@
gap
Var@@
लाती
जांचें
bes@@
ditions
decimal
pursued
occupied
संपर्कों
beat
parti@@
विनि@@
pregnancy
चार्@@
Process
backend
लौटना
Fer@@
चलकर
बदरूद्दीन
snake
vessels
कण्@@
सके@@
God@@
टका
attracted
Load
whatsthis
जातीय
icated
श्रीलंका
हँ@@
there@@
चढ़ा@@
वनों
स्ट्रि@@
illegal
expand
evidences
indul@@
गईं
आघात
fonts
कालि@@
तम्@@
धम@@
ताजा
भंडारित
मुक़@@
magnetic
उपदेश
ules
Centres
cli@@
वापिस
प्रिंट
Session
तदनुसार
electric
कर्ज
Thir@@
ump
sul@@
pec@@
exploitation
बढ़ाया
Officers
सकेंगे।
ank
Dh@@
Library
ख़ुशी
निदान
checked
गृ@@
म्यू@@
Star@@
ग्रंथि
Brasero
प्रत्यर्थी
अपमानित
चाहूंगा
प्रेमी
जमे
strate
emergency
ंद@@
पुणे
चुनने
अभिन्न
एयर@@
आंबेडकर
ca
iss
dwellers
हारी
Ji@@
पद्@@
fort@@
à¥
bind
भयानक
Por@@
चरणों
nu@@
Pi@@
स्ना@@
रियल
Advanced
षा
surgery
दोहरा
ठों
सौदा
NATIONAL
लोहे
onic
ताएँ
ठहर@@
Ganges
दुबारा
स्टॉक
१२
अनिवासी
Road
माफ़
raviratlami
nit
जरी
tified
Welfare
Gal@@
परजीवी
iri
invite
expanded
जमाने
शरारत
parallel
ocation
cursed
कहलाता
एगा।
सामुदायिक
bil@@
चाई
mount
मंगल
punished
साक्षात्कार
माया
ll@@
वाज़ेए
भेदभाव
Far@@
मज@@
कर्मियों
triumph
थै@@
pressing
स्नान
obst@@
ईमानदारी
षों
नोटिस
इल्@@
seal
भव्य
beneficial
crowd
ona
रोकें
taxes
actively
Maj@@
Post@@
texts
institutes
शिप
जनन
सहेज
asp@@
ensive
logic
Thank
cat
डम
ware
अशोक
निपटने
worn
genuine
इला@@
ज़रूरी
errors
अभिव्यक्त
मापन
sou@@
सिखा@@
Assessing
मिली@@
intr@@
Bharati
representing
asting
ताव@@
ध्येय
टीका
Wal@@
provinces
निकलता
Ah@@
constra@@
जब@@
occasions
edness
rating
Mahar@@
tum@@
resort
हटाना
म।
movie
धनी
मेहरबानी
समझो
व्यष्टि
ect@@
stick
जिम्मे@@
सीने
फ़िर
expert
tourists
अर्जुन
पाठकों
geographical
à¤¾à¤°@@
MESSAGE
फैसले
inputs
भूटान
harvest
accompl@@
Isaac
शीलता
दिलचस्प
टेलि@@
recording
Super@@
प्राइ@@
जुड़
deep@@
gies
Rav@@
executed
dial@@
1.2
voc@@
गतिविधियां
चरम
forgotten
फौज
भूभाग
Brahma
चरित
बौ@@
Empathy
संस्थाएं
utes
ika
Lahore
Holy
दोपहर
Direct
hereafter
continu@@
abha@@
प्रमाण@@
part@@
शीट
Ju@@
recur@@
graduate
Bahadur
eigh@@
free@@
जोड़ी
nal
Institutions
hypo@@
kno@@
अग्रेषित
offic@@
candidates
genetic
composition
औरतें
regul@@
ताई
epic
attacks
ब्यूरो
उलटे
reducing
वाक़िफ़
पत्ति
अनुयायी
रातों
Badruddin
वर्षगांठ
regi@@
favors
स्थानांतरित
Proc@@
1950
crucial
स्वी
demon@@
श्रीवास्तव
यूनियन
E.
income-tax
रूह
wara
attrac@@
अग्रसर
ठे
Planning
Nanak
boiling
निकालना
मेल@@
भौ@@
appreciate
लड़ने
Fort
instruc@@
queen
Bor@@
Head
हारों
productive
Back@@
तिहाई
defend
sement
Sheikh
identi@@
इम्@@
पढ़@@
Cla@@
awa@@
duly
सिंहासन
क्रमिक
Peri@@
ald
केशन
अथ@@
चलाए
देरी
intense
Vidy@@
fet@@
बनाएं
protein
Moreover
extraordinary
talent
hydr@@
excessive
नह@@
मनी
Rate
hire
जिनपर
तुल@@
आकाश@@
1991
Kur@@
Ali@@
Kabir
investigation
भेजता
statutory
hero
क्रियान्वयन
tears
insul@@
Cr@@
cutting
1.0
MSME
Dist@@
अब्दुल
Requ@@
संचिका
cement
clos@@
asis
छाप
उठता
pac@@
हानिकारक
Pad@@
पादक
Bla@@
tac@@
stable
आपदा
ाओं
प्रगाढ़
yo
वेश
rot@@
वाल्@@
41
अय@@
प्रस्तावों
Indo
वि
कैं@@
लाभांश
everybody
aircraft
flags
श्वसन
Gop@@
chat
stomach
design@@
Hal@@
nom@@
appreciation
दिक
blown
exchanges
चलाना
वीर@@
न्यायाधीशों
Vertical
सूखे
scholar
bitter
भयंकर
ष्टा
ललिता
सुभाषबाबू
imports
shadow
PA
chemicals
जाँचें
ania
defendant
ऋण@@
bag
पडे
ऊतकों
सफर
उपयोगिता
ह्य
कोश
simul@@
ownership
empha@@
लॉगिन
arrival
इक्@@
स्टोर
कनाडा
कॉन्फ़िगरेशन
kes
examine
finger
red@@
Kon@@
विषयक
resem@@
fe
adults
कन@@
निधियों
earning
हालात
uran
ordained
Point
Books
डीपीआई
ench@@
नरम
अत्याचारियों
आनुवंशिक
taining
झगड़ा
बुतों
क्षकों
निम्@@
पोशीदा
नियाई
essor
RA
्र
सम
दाने
जाएं।
बर्ट
qualified
bh@@
ck
smoke
reflected
eable
token
कामयाब
अवलोकन
चुंबकीय
spir@@
इंड@@
wonderful
stamp
gland
ज़्यादती
वक
अनुप्रयोगों
acious
lic
players
Bat@@
एँ।
तख्@@
दिलचस्पी
लिटी
cla@@
गिन
bought
तंत्र@@
क्षतिपूर्ति
सेंटर
बद्धता
plains
glorious
Unicode
उत@@
encounter
कंपनियां
connecting
माध्यमिक
scriptures
इंकार
assa@@
इंडि@@
ताजमहल
भ्रष्टाचार
मौखिक
nutri@@
flow@@
pping
locked
आन
लाम
तुरन्त
ंगन
abled
व्याख्या@@
intelligent
asy
आवश्यक@@
स्वर्ग
जानती
zy
जन्म@@
gar
descendants
Produc@@
garh
Div@@
Aut@@
अंश@@
apping
dest@@
9.@@
1990
मोर्@@
mortal
400
बंगाली
सोना
ग्रं@@
·@@
island
pel
SMTP
लियो
Pune
नृ@@
115@@
refuse
obligation
भाष@@
निदेश
amps
adly
recognise
उड़ान
eding
MUKHERJEE
worry
बाएं
तह
विशुद्ध
छोर
lessly
सको@@
600
अद्भुत
अनुस्मारक
स्थूल
नेस
Sor@@
ंगर
बग़ैर
liable
balanced
chiefs
Praise
तालाब
nut
App@@
circuit
temp@@
ayan@@
गुमान
una
awaits
ऋतु
खाड़ी
affir@@
à¤@@
घे@@
बोहतान
gir@@
मजबूती
exact
ette
destiny
जगहों
महत्व@@
बाध्य@@
सुविधा@@
लास
peri@@
तीर
march
vil@@
ops
nose
los@@
show@@
इंग@@
मोटी
हिम
साइन
बिंब
kin
विशेषताओं
लैंड@@
Tim@@
Initi@@
बलों
Fir@@
tan
गवर्@@
William
सको
ignore
वाकई
दृढ़@@
अद्वितीय
नीकरण
कहें
यूं
आखिरी
लिस्ट
itude
focused
Island
निष्ठ
Connection
ईः
इसलिये
·
Governorate
तप@@
Off@@
इच्छाओं
विका@@
मोचन
विलियम
commencement
coast
02
तनिक
रित
दिनांकित
films
दर्शक
ग्रंथों
णात्मक
institute
संवेदना
जायेगी।
Hari@@
कर्त्ता
िया
counter@@
UTF
OK
उद्यमी
ATI@@
जरुरी
पंथी
nagar
pleasant
ultimately
मंग@@
strongly
incre@@
beach
षणों
ached
भेजते
experts
prefer
Sri@@
ply
पाप
मंदी
ingu@@
संबंध@@
दाओं
Tar@@
स्को
सचिवालय
DU@@
CVS
prayed
tify
श्रमिकों
अट@@
remin@@
हरियाणा
func@@
थियों
इज्ज़त
Integrated
रोज़ा
पत्तन
मुर्दों
वर्ग@@
रहे@@
प्रो
sixty
cogn@@
pets
doctors
प्रशासक
जू
connections
eds
पारदर्शिता
ests
urgent
presents
ulous
Cs
native
entary
द्वारकानाथ
evildoers
स्पै@@
महर्षि
Ang@@
Ye
anth@@
जरुरत
ों@@
Wat@@
Presid@@
वास्त@@
गम@@
entrance
इल@@
Haryana
बेच@@
पीछला
mothers
मिले।
नवी@@
बढ़ना
Durga
छिपे
Rag@@
lists
necessarily
प्रौद्योगिकियों
स्र@@
Vedas
tied
eventually
couldn
१६@@
singing
abundant
एकड़
Field
पूछताछ
सिख
arch@@
तव@@
Normal
stan
supplied
mas@@
सांप्रदायिक
ंगल
Syn@@
श्च@@
experiment
isn
घटकों
ICT
feared
बढ़े
सोम@@
सजा@@
राना
ld
म्भ@@
listening
रुख़
realisation
obtaining
बीवी
तनों
abnormal
associates
स्पर्श
प्रख्यात
trash
clock
uated
अहमद
colleges
व्यापी
cup
प्रतिस्पर्धा
Himalayan
निष्पादित
झगड़े
कें@@
ृत
ik
nervous
vation
सकों
filling
शासकों
पूछें
ंडों
applies
Tan@@
openly
proceeding
74
const@@
चालित
बाज
cles
flood
गरीबों
कोमल
प्रसव
injured
genius
फेंक@@
acquire
दुर्भाग्य
piety
explanation
भ्रमण
ठहरने
विशेषज्ञों
duction
कदाचित
आनन्द@@
शिकायतों
owners
embr@@
ज़ार
Pil@@
Rather
Junk
पेड़ों
Vari@@
दिवसीय
LINK
कमाया
ION
लेस
operational
cool@@
हियों
ब्राउ@@
राज़्य
eer
TH
श्रेय
sequ@@
inate
अतिथि
negoti@@
झूठी
allocation
व्याकरण
Bhutan
packages
लुप्त
arts
साँचाः@@
loads
angry
रूसी
pixels
pped
दायरे
सुल@@
गयीं
aol
Lucknow
आशंका
KB
समावेशी
आयुर्वेद
reminded
jud@@
Flo@@
Iraq
wheel
वायदे
माँगता
Hi@@
ब्यू@@
Men@@
प्रदेशों
मेर
निंदा
कूद
रिपोर्@@
बिं@@
merit
सहा@@
depend@@
सजदे
हल्की
automatic
११
interven@@
195@@
handling
Registration
terrorist
Instead
पुकारो
निरूपित
नेको
aster
द्धि@@
नेअमतों
काश्मीर
estimate
गठ@@
Nath
outlook
considering
प्रतिरोध
अज्ञा@@
xed
बाबा
SU@@
इक@@
Develop@@
gated
कार्यकाल
Loan
Movement
waves
guess
esa
ograp@@
थों
श्रेणियों
विद्यु@@
handed
dimin@@
रहें।
इच्छा@@
पिक्सेल
वर्गीकृत
Pun@@
प्य@@
गिरावट
इंग्@@
disaster
जगत्
आदेशों
Able
hall
liked
स्थिति@@
Technical
ort@@
आँख
stre@@
abh@@
काव्य@@
EVE
encing
निदेशालय
उग्र@@
criminals
कत@@
consistent
क्वे@@
thrust
ंजी@@
समझी
दाना
फौ@@
lined
Short
सिखाया
विपक्ष
filing
mak@@
complicated
बसे
orium
चुप
shel@@
दंत
liar
मोती
PAT@@
ws
television
१९७@@
पतियों
जैसाकि
कब्जा
Evil
ट्रो@@
Warning
schedule
marine
एकीकरण
CE
भेड़
दबा
asser@@
समुच्चय
ढाल
वज@@
शब्दावली
अमर
जीवंत
मिन
expl@@
आया@@
खेतों
norms
enth
लज्@@
कारकों
class@@
park
headers
Icon
साधना
ough@@
सबूत
grows
क्षेत्रक
रखनेवाला
African
indicates
सवा@@
पेटेंट
असफलता
मुफ्त
परिदृश्य
engage
smooth
जहन्नुमी
त्रिक
surprise
aspirations
बेख़बर
Fa@@
flies
भागवत
ंकि
भंड@@
dominant
overwhel@@
03
हल्के
बँ@@
Procedure
essence
रिस
GenericName
locally
अभिनय
काला@@
एँ@@
उत्पत्ति
harm@@
atra
roll
खुलने
ीं।
Allow
drag
conven@@
साई@@
ट्रिक
horses
ंगो
actors
अभिवृद्धि
अभ्य@@
कप
ऑंखें
assume
enic
उत्सर्जन
मुद्दा
subsidy
सटीक
चिकित्@@
लाई@@
लाभदायक
Times
पूंजी@@
wider
शुष्क
नफ़@@
upright
hib@@
fic
मृतक
maturity
tape
बीर
मूल्यवान
सेटअप
दिखाएं
fraction
planet
situations
reaches
उँ@@
आयु@@
applicant
बन्ध
Pet@@
मीन
ound@@
startup
forefathers
कहानियाँ
पकड़े
खरी
मात
bulk
स्का@@
tolerance
प्रबंधित
Ds
सँ@@
पाया।
रोमा@@
hatred
tish
mits
firm@@
पटेल
locations
babu
सर्वो@@
CMS
बीत
coloured
Neither
VE
मिलेगा।
59
स्टाफ
त्ता@@
5,0
ज्योति@@
सहभागिता
therewith
tak@@
troops
विचित्र
rac@@
Ay@@
आवेदक
san@@
तद@@
घायल
AS
Railways
नस्लों
सोचना
उड़ा
lots
जमीं@@
टिया@@
creature
PM@@
Administration
कृति@@
@@
fre@@
आंख
फिटकार
gor@@
रोधी
Build
आगाह
aces
वार्तालाप
glo@@
नील
खजूर
viz
लड@@
मार्गों
चुपचाप
catch
न्वित
अब@@
revision
tons
TS
examined
जाएँगी
दान@@
stric@@
£
enquiry
encouraging
ension
प्रपत्र
emails
केल
दीं
apur
दिव@@
wound
alistic
resting
अलार्म
ऊँचा
prom@@
stem
enables
बहती
alia
murder
१५
risks
uments
Star
oxygen
Brahman
५०
फिरे
Bang@@
restored
सत्या@@
hopes
निशा@@
नदार
हेक्टेयर
अनु
advantages
संगणना
बढ
विना@@
dynasty
अनुक्रिया
inated
वयस्क
सख्ती
सूक्ष्म@@
inevitable
दाएँ
PP@@
विराम
आबंटन
strict
suggestions
jee
घोर
वक्र
भिन्नता
पहचान@@
dialogue
लक@@
हस्ताक्षरित
circum@@
phys@@
belonged
chest
अधी@@
प्रक्रिया।
निकालकर
virus
क्लब
repeat
अंकु@@
Download
वादे
Four
नित
thinks
Agreement
obedience
accurate
garments
ood
पश्च@@
ko
Academy
स्पद
वय@@
Speci@@
pursue
aar
CA@@
spr@@
ior
mid
flows
भरण
ख्वाहिश
संशो@@
tier
eta
टुक@@
vitamin
लार्वा
द्रा@@
speeches
३०
seize
धारित
compassionate
फ़ॉ@@
्स
स।
Key@@
acute
breath
संभावनाओं
.2013
जूट
µ@@
describes
stro@@
province
उपहास
विज्ञानी
ino
ify
ज़न
दली@@
नियो@@
उत्पादित
दर्जा
तरी@@
अपरिचित
फिल्मों
सहभागी
quar@@
समायोजित
passion
Replace
machines
journ@@
बताओ
refin@@
इकट्ठे
approaches
जागरण
सिंधु
engagement
Wor@@
Smt
Standards
paths
insert
तक़@@
Thereafter
घृणा
unt
plenty
न्तों
धनों
लाग@@
brown
Malayalam
oph@@
लखनऊ
नजदीक
cursor
क्रिप्@@
ace@@
saint
ore@@
clin@@
Ministries
aur@@
लाव
ales
सकताः
bir@@
yers
manife@@
sized
कियां
समता
Scale
खाद
exclusively
उम@@
enormous
विकिरण
क्रिया।
wine
ज़ूम
ician
credited
swit@@
बने।
साधक
मधुर
advise
Script
law@@
निवासियों
histor@@
ame@@
pal
routine
copies
helpers
दवाओं
ost
preference
नूर
न्ति@@
inger
treasure
लान
emerge
ested
पत्ते
पारिश्रमिक
उपनिष@@
holders
GO@@
सेस
बम्बई
बकाया
admission
विल@@
..
ort
ritual
जां@@
मत्@@
flying
inqu@@
आर्य
दरगुज़र
ancing
innovations
जगन्नाथ
secured
IM
संबं@@
Bre@@
pending
देवनागरी
plate
etic
Taj
seriously
sects
मुहर
राग
corporation
पर्यटक
chol@@
वोल्@@
identification
foun@@
Toggle
selves
utmost
nel
sof@@
cooperative
स्तर@@
Hus@@
करेगें
चित्रित
Abdul
विशिष्ट@@
मुहलत
peak
स्थि
जिन्नों
spell
certainty
Authentication
वेद@@
Sel@@
repair
scor@@
icons
नू
switch
कामकाज
slope
mill@@
स्वैच्छिक
पारिवारिक
जना@@
fortune
nobody
lighting
बाजारों
makers
Consumer
Record
Transfer
requests
दिशाओं
झगड़ते
प्रतिबद्ध
मैच
righteously
डाक@@
पत्नियों
डराओ
dominion
thly
सूचकांक
प्रोटो@@
2nd
aug@@
inspection
मुद्र@@
राष्ट्री@@
obligations
synchron@@
Bhagat
पर्वतीय
फारसी
मजिस्ट्रेट
Pas@@
contrast
aced
तृतीय
ऑन
dur@@
Promotion
31st
pus
tank
ider
begun
necessity
क़ब्@@
à¤¾à¤à¤
सुवि@@
Interest
तिरु@@
Kum@@
प्रचुर
तेलुगु
लीटर
educ@@
brave
योग्य@@
ana@@
molec@@
मुर@@
dupl@@
ऑर्@@
रवाना
adoption
म्मा
शियन
विश्राम
Quit
otes
विधायिका
aggregate
याचिकाकर्ता
stic@@
नाव
fir@@
Singles
यकीन
gathering
दाय
माने@@
पहचाना
र्न
61
62
commerce
slightly
Dur@@
पठन
discover
omin@@
updated
ध्यक्ष
restricted
arri@@
pregnant
चने
ign
आचार्य
esis
ारत
मुनासिब
सू
विन्यस्त
foods
lun@@
cler@@
आउट@@
accordingly
elder
Cop@@
ढे@@
capabilities
nigh
नक्@@
login
शाश्वत
abor@@
Taste
circular
वैश्@@
aji
sis
Ren@@
निकला
स्केल
म्बर
flour@@
purcha@@
बैठने
ananda
बाल्@@
पुनरा@@
ढाँ@@
maxim@@
Processing
श्ले@@
treas@@
weigh@@
tribe
गेट
ज़ू@@
residential
बनावट
exception
आरक्षण
habits
socio
गेहूं
dres@@
क्षेत्रफल
शिष्य
harmful
ipur
संकल्प@@
रसीद
apati
orial
णि
Cont@@
शिल्@@
transmitted
UID
तिलक
Prem
Dr@@
attacked
दाएं
ब्ले@@
मदों
Af@@
क्टरों
guards
कीकरण
Vo@@
विन्@@
उत्तरा@@
कुशादा
धे@@
बिर@@
imper@@
कराते
कड़
cm
रखेगा
à¤¿à¤¯@@
भोज
facilit@@
lers
फेर@@
vely
Oil
mic
घट
बाज़ी
formula
artist
clari@@
sively
नरी
प्राण@@
ulations
प्रमुख@@
writable
0,@@
vested
goodness
पद्धतियों
सल्तनत
ारण
बिलियन
feels
लीज
elim@@
अपू@@
गणितीय
स्त्रोत
Tor@@
g.
attach
sub-clause
cancel
margin
pilgrimage
cord
Kath@@
सहेजा
कल्पित
आइए
goddess
commodity
रेगिस्तान
need@@
सेल्@@
tations
लेंस
आवासीय
tened
Changes
टेबल
विधानसभा
ड़ियां
धं@@
aforesaid
भावा@@
एक्सटेंशन
बिल्@@
Database
trusted
पुनर्वास
sist@@
अनुपस्थित
nat@@
पूछे
प्लास्टिक
But@@
expe@@
चुनावों
clim@@
निकालें
फैले
फैली
pris@@
massive
Lab@@
ques@@
परो@@
jection
Pay
शिका@@
ठहराए
blow
घंटा
बच्च@@
patch
वक्ता
individ@@
interval
overseas
प्रतिवेदन
कारावास
ंची
vara
मित्र@@
ups
males
tenant
willingly
बेच
kan@@
itated
presid@@
experiments
च्छा
उज्@@
à¥à¤¯@@
loom
ण्डि@@
trem@@
ump@@
endranath
मृत्यु@@
reck@@
णियों
सतर्कता
Primary
Brahmin
uta
electrical
कृतज्ञ
ध्य@@
तां@@
nings
GP
1/@@
casting
IL
AG@@
निर्णयों
अभियुक्त
कश्ती
ूप
AM@@
progres@@
आल@@
Vid@@
PRANAB
पाण्ड@@
micro
Sm@@
िए
Sav@@
कौंसिल
shi
काउंसिल
कंप्यू@@
सनातन
पडे@@
firms
दिखायी
Che@@
बादलों
यज्ञ
agon@@
tissues
tales
उद्देश्य@@
49
Fe@@
3,@@
परिपूर्ण
विज्ञा@@
शृंखला
डोर
Street
travelled
jac@@
क़ु@@
Gir@@
शि
जनजाति
बत@@
मौन
dedication
Hun@@
eleven
ancients
चूँकि
स्वदेशी
institutional
resolved
ense
बीमारियों
कती
tici@@
लौटाए
ffic@@
बैठकों
करूँगा
क्र
चोर
Tru@@
Anj
/2
बहुमूल्य
rical
एमएसएमई
afterwards
बुल
Writ@@
मिया
etry
लिश
समु@@
पत्तियां
pers
anna
Allowance
Prof.
Cancel
दाश्त
प्रमाणीकरण
CI@@
हं@@
aked
उम्मत
cultures
therefrom
Projects
Memory
generous
edly
alit@@
मशीनों
मसौदा
propri@@
Phot@@
Saving
aa
मुझ@@
चन्द्रमा
आई।
monitor
Version
तबाह
GE
symbolic
रखनेवाले
4.0
dictionary
Hall
एख्तियार
स्नातकोत्तर
colours
TY
asks
शियम
New@@
nice
Eli@@
केश
चुनी
rains
ऋषि
बाद@@
Turkey
ल्ले
5,@@
सुथ@@
होनेवाली
aving
sor
रहीं
liness
प्रवा@@
खंडों
accounting
रर
eed@@
erly
Active
posed
पावर
संदत्त
mining
imprisonment
मिर्@@
सवारी
plastic
Bureau
मुआव@@
पदक
Connec@@
टेक्@@
सांप
ulated
प्रजा
bearer
Tool
बुराइयों
discovery
Sindhi
माबूदों
पॉलिसी
चालीस
separately
बेटियाँ
buil@@
xes
सुन्@@
wont
मुश@@
recogn@@
गुट
conveyed
किं@@
दीर्घकालिक
कृषक
Yahoo
काया
योनि
olo@@
तटीय
त्रुटि@@
मलयालम
छेद
Branch
well-being
जाल@@
दुओं
पहुँचे@@
cooking
Gracious
Indus
1995
approximately
É@@
eep
समन्वित
cus
दीर्घ
tance
Cell
अक्षरों
wherewith
execute
6,@@
कताओं
तस@@
Pos@@
Sikkim
calm
बल्लेबाज
Fear
stal@@
रि
administrator
endor@@
ems
लगाई
धिकारी
oma
expensive
िका
Brah@@
Compassionate
leg
Nation
worshipping
बढ़ी
origin@@
doth
7.@@
शुल्@@
ईमान@@
स्तन@@
defeated
वसीयत
scription
forb@@
fertilizers
95
मुद्रक
पोरेशन
striving
than@@
दस्तावे@@
earthquake
Organisation
premium
भेजा।
5.0
gradation
osh
patterns
disputed
eal@@
ket
बैठकर
increasingly
targets
utterly
सद
Ayurveda
Nokia
slave
Vol@@
may@@
black@@
Att@@
Haz@@
blast
anyway
ek@@
keeper
Survey
आभासी
Arabs
शिला@@
mi
tedly
ENCE
disposal
Paul
Lin@@
नोकिया
occurrence
premises
करण@@
ओह
संभावनाएं
जिबरील
पटना
यूनानी
scr@@
नारियल
Sem@@
प्रस्तुति
nip@@
suggestion
188
flame
परीक्षक
संस्कार
Inf@@
Av@@
AI@@
rebellious
attempts
muscles
esti@@
प्रौढ़
मेनन
वादों
searching
incentives
विशेषताएं
मुल्@@
Sahib
मणीलाल
vot@@
राजवंश
बढ़ाकर
Vik@@
शोकाकुल
stitution
rarely
ased
हफ्ते
यूरो@@
Dwarkanath
साध्य
गंगा@@
ility
laugh
Writing
camp
belie
checking
promises
आये।
ब्रितानी
Exc@@
eys
Know
भीतरी
स्तंभों
ज्य@@
रते
bold
ख़ुशख़बरी
मध्यवर्ती
चिट्@@
सकर
अंतः
strug@@
प्रतिभूतियों
photos
निमित्त
मस्@@
SA
obviously
राजकीय
dwellings
आपराधिक
संरक्षित
उतने
DH@@
एहसास
निकायों
पुत्री
pression
Kes@@
दुग्ध
allowing
सरस्वती
mean@@
speaks
चूर्ण
पाएगा
परिसं@@
ayana
साप्ताहिक
vimana
Bac@@
खने
दौलत
Whom
घबरा@@
बारी@@
savings
Natural
प्रातः
pois@@
मेला
मों@@
तत्व@@
ज्यों
लक्ष्मी
विदा
आबंटित
पाठ्य
कहे@@
सीसी
continuing
भौतिकी
ख़त्म
tin@@
सोच@@
1993
पिघ@@
Unseen
conviction
Inc@@
mission@@
करवाने
सत्याग्रह
मान्@@
Photo
व्र@@
सामान्य@@
CL@@
habit@@
Swaraj
स्रा@@
atri@@
गला
अंग्रे@@
परिणाम@@
Pot@@
satisfy
shan
chargeable
एकजुट
rub@@
न्तर
license
icing
बाक्स
Aurobindo
segment
एहकाम
अपर्याप्त
poli@@
reserves
टम
rolled
à¥@@
Digital
Palestinian
Gen@@
सदृश
visiting
फर्क
intim@@
hai
inging
सीना
astr@@
अमान्य
MW
grand
एल्गोरिथ्म
delegation
mobil@@
ulating
paddy
stakeholders
vel
तस्@@
सफ़@@
एँगे।
खेलने
क्रमा@@
dium
कंप@@
विश्@@
जनजातियों
hero@@
Try
oused
icks
54
substitute
विला@@
bi
रणनीति
नोड्स
रियम
QU@@
अन्तः@@
quick@@
surrounding
4.2
परिवर्त@@
ellation
जर@@
दाब
Rabindranath
उदा@@
Museum
hem@@
alms
ignored
अमर@@
allied
atta
idence
Yojana
possibly
संगीत@@
referring
अन्वेषण
वित्तपोषण
कण
videos
measured
mineral
amalgam@@
painting
draw@@
advoc@@
transc@@
à¤«@@
–इस
टिया
rename
श्रेष्ठता
9.2
पवन
tiz@@
utility
secre@@
france
Du@@
motor
बनायी
junk
osa
quot@@
अंडमान
प्रार@@
श्रृ@@
enhancing
viable
exceeding
pass@@
Horizontal
सिक्किम
deleg@@
अब्@@
Bud@@
Tab@@
मंत्रि
protecting
रहोगे
toler@@
Queen
बुलन्द
शल्य
idolaters
त्ति@@
06
uni
ego@@
3rd
lease
transform
Respon@@
guests
अप्रत्यक्ष
करतूतों
proclaim
threat@@
forwarded
certificates
relate
AM
idation
BI
affects
see@@
राजी
विवादों
accommodation
ष्म
PR@@
denial
निविदा
plain@@
ऑफलाइन
निःशुल्क
sovereignty
ल्यू@@
rein@@
RF@@
erc@@
निराशा
कहू@@
ग्रेड
चिंतित
query
icit
Festival
helpful
Doc@@
ua
बीमा@@
स्थाप@@
que@@
विवश
lon@@
bounties
गणेश
Down
ida
Judgement
Event
pad
myth@@
हकीम
Lak@@
Thee
अंधा
complaints
पंक्तियों
estate
स्टाक
developmental
ज्योति
परिपथ
Soviet
lending
लीजिए
बदली
confusion
asth@@
Whosoever
imperialism
modi@@
Rani
elsewhere
wal
Leg@@
picked
नाफरमानी
untoucha@@
सूखा
festivals
T.
पड़ेगा।
lib@@
आधार@@
Top@@
hotel
Agency
Hum@@
रावण
Very
उत्सुक
cere@@
पैदल
Chi@@
ऑंखों
DP
येंगे
5th
राधाकृष्णन
कर्मी
Northern
मचा
retrieve
तात्कालिक
comprising
navig@@
Sik@@
ces
ure@@
ँक
स्नेह
महिलाएं
पर्य@@
web@@
अपार
मेन
verte@@
स्पि@@
Within
यकृत
सर्विस
writes
IM@@
eva
ज़िम्मेदार
dos@@
व्याप्त
Golden
जता@@
ट्
बिहारी
Death
ह्रास
definitely
Protocol
शस
भ्रूण
श्वर@@
sett@@
ियाँ
संर@@
tionaries
बीबी
gence
invitation
inherit
Commerce
ved@@
स्वार्थ
posts
Prac@@
Canada
comments
चेतन
बदकार
रोकथाम
चेताव@@
विशेषज्ञता
पृष्ठों
Kash@@
dum@@
सेवाएँ
establishing
desirable
नार्@@
Was
त्ति
वल्ल@@
कैलेंडर
डाई
चमकी@@
अधिग्रहण
कथाओं
वित्@@
भेजे@@
grat@@
whol@@
Output
पढ़े
वारि@@
पागल
Transport
माँग@@
लॉजी
स्त्रा@@
पट्टे
ोगे
ओवर@@
सदियों
WOR@@
वर्त@@
diversi@@
जन्मदिन
मणिपुर
Directorate
श्रोत
डाला।
नरे@@
वृद्ध
जीने
ारोपण
इतरा@@
शनल
rejoice
endent
बेह@@
shame
talks
parliament
Radhakrishnan
ishments
अप्@@
indic@@
rocks
आयातित
खरा@@
इंगित
ीकृत
semi
ब्रॉ@@
ruined
निमंत्रण
जनजातीय
fted
थु@@
prisoners
traction
Amount
PGP
Patel
Dem@@
guru
idi@@
Suf@@
absolutely
समूचे
edges
य।
रुग्@@
पकड़ने
आइ
ठान
बैंड
अगलों
ंभ
तीव्रता
सप्@@
Rat@@
बलिदान
parable
Major
साई
निषे@@
निर्या@@
Gazette
रस्सी
Believe
Torah
तीर्थ
1957
enacted
1987
इख्तेयार
एट
खंडन
sympathy
व्यायाम
कष्ट@@
Couldn
गंभीरता
किराए
Das@@
themes
स्कैन
whereof
rewarded
घं@@
इलेक्ट्र@@
defin@@
expertise
afternoon
membership
purify
पहु@@
ठु@@
phil@@
मेशन
अर्जी
partly
प्रमाणन
Re
dividend
ticism
समझती
वास्तु@@
storing
fficiently
generating
tia
nights
Accordingly
hindi
Seeing
वटी
monetary
लिप@@
प्रारम्भिक
pay@@
ङ
aly@@
translations
Viceroy
vehicles
Long
रथ
¨
सिया@@
बुल@@
ā@@
शांतिपूर्ण
API
बक@@
निप@@
संदेश@@
टाइम
झुक
फरे@@
मीर
Ker@@
cap
gal
functional
eeds
Shak@@
altern@@
मुकाबला
तुम्हीं
पीएस
आश्चर्यजनक
anno@@
ऑटो@@
टेक
irrit@@
worth@@
horizontal
liver
Israeli
Religion
intensity
visual
उपन्यासों
Om@@
भट@@
चूर
बुलाए
suff@@
Tem@@
devotees
arises
पहलों
आंखें
Acc@@
अनुकरण
बाजू
सोवियत
नाश
दत
कवर
मत्स्य
आश्रय
WE@@
ean
भाषी
जोश
अन्त@@
फोर्@@
नारा@@
prophets
spending
सोसायटी
powder
श्रव्य
गृह@@
स्कै@@
क्लाइंट
Secondary
Ray
निभाई
pull
ERS
aur
Mobile
Ni@@
क़े
Manipur
oldest
illing
सिनेमा
पार्ट@@
verted
intercession
grav@@
बलराम
valuation
कट्टर@@
प्रभु@@
डः
परिवर्धित
माद
उम्@@
मिति
76
89
levied
Ti@@
सलामती
सरलता
पोर्टल
मौजिज़ा
Tasks
favourable
Bal
relatively
ailed
श्रे@@
shops
Mic@@
disp@@
locate
मर्दों
guil@@
किशोर
tone
rainfall
द्रव्य
Till
placing
circul@@
बढ़िया
संवि@@
सिंधी
गाना
incorporated
econ@@
Tam@@
जबतक
अपमानजनक
बंधक
1989
बेस
गुज़रे
विद्वत
तारि@@
छवियों
tiveness
लौह
पला@@
mix
तावादी
enters
विधवा
vern@@
यूआर@@
ंद्र@@
पैटर्न
Copying
टरिंग
पेटी
सील
समस्या@@
भोग
वचन@@
Liber@@
स्तन
alling
afflicted
aver@@
रूपी
185@@
आदर्शों
argue
प्रिं@@
क्टो@@
pardon
गौर
युग्@@
Straight
द्धा@@
linkages
tiny
Ocean
dict@@
लगों
खेलों
CAL@@
पैरामीटर
पर्यावरणीय
columns
बंदरगाह
Jain
will@@
eed
द्रता
Languages
सव@@
गुणव@@
eph@@
थाः
अमी@@
ji@@
पृथ@@
inking
onymous
वृक्षों
Available
enabling
Dhar@@
networks
धरा
इका@@
डं@@
Det@@
caus@@
intimate
involvement
bab@@
यहूदियों
Worship
Sak@@
करु@@
philosophical
thro@@
Rai
formulation
Weather
Abdullah
असफलः
प्रभार्य
सजीव
गरिमा
Box
रीकरण
enture
जत्@@
studying
incidents
चाहेगा
गर्भवती
अपशिष्ट
फंक्शन
Block
नेटवर्@@
न्तरण
मूलतः
accepts
चंद
journal
04
पाएँ
integr@@
67
खादी
quoted
economies
हवा@@
करवा
मालों
दिली
humility
यूआरएल
याः
Hu@@
riches
प्रोग्रामिंग
barren
अभिलाभ
रत्@@
store@@
enthusiasm
अम्ल
मध्यस्थ
disciples
दक्ष
विस्@@
railways
®
airports
स्म@@
झे
inspire
Write
अनुकू@@
Manilal
Trash
utter@@
नवान्वेषी
prosecution
beliefs
लां@@
टेस्ट
inaugurated
सीख@@
colonial
संतति
बर्ग
continuously
GU@@
व्यवस्थाओं
DE
struction
passes
बादशाही
सामयिक
originally
ईस्ट
गरम
Convention
Assistance
इनायत
घर@@
iction
बिस्तर
ील
book@@
अमीर
ब्रो@@
सहे@@
ENT
anybody
mechanical
बियों
फूँक
ज़त
फ्लैग
वरना
कियाँ
निगाह
राजे@@
किन्@@
63
टि
अहं@@
pled
Install
साख
timely
धना
cos@@
आधुनिकीकरण
१७@@
wer
बहरे
मुख़्य
hearted
duce
\\@@
पॉल
quarters
पृ@@
दिखता
abilities
profound
phot@@
अंगू@@
transparency
scan@@
ॊ
AIR
पंचायत
processed
à¤¿
मरयम
बशर्ते
फ़ंक्शन
58
शब्दकोश
नाटकीय
incomplete
colon@@
आयत
दिलाने
अट्@@
लेनी
satisfactory
Fir
उपासना
TP
तसदीक़
उम्दा
Continue
ने।
onom@@
tracts
Sind@@
नम@@
ece
comment
रोटी
coding
ouring
अटकल
Exam@@
Menon
anced
furn@@
वबाल
orientation
डीए@@
ड्रा@@
रत्न
shoulder
bounds
enn@@
fare
पांव
furnished
परंपराओं
declined
poll@@
अनंत
अस्@@
पीसी
अच@@
aling
दुल
advances
Bah@@
फ़ै@@
membrane
view@@
Micro@@
रहनेवाले
IBM
नीला
cometh
deeper
elephants
withdraw
regime
टुकड़ा
impul@@
ल्फ
Empty
बढा@@
preparing
निकाली
Initial
ख्त
रिश्ते
बख्त
monsoon
मरी
हिन्दुस्तान
गायब
स्टल
ome@@
भाषित
विजेता
May@@
managing
नेमत
मृदा
bamboo
जाति@@
वेदन
खर@@
Rever@@
Tw@@
ince
हूद
avoided
concentration
दायर
न्न@@
inding
descend
secular
फ़रमाया
वाजपेयी
bra
जोशी
orous
पहि@@
एजेंट
Sikhs
Succ@@
restrictions
bee
tionally
Deli@@
डिवाइस
साठ
अंगु@@
Bhai
counted
उत्थान
Dri@@
Inst@@
mist@@
dir@@
coordinate
धु
पड़ना
टेशन
जिन@@
केलिए
perception
बागवानी
widget
doubts
विशा@@
averse
Guardian
ially
तात्@@
अंशदान
ella
रिसालत
elds
आमंत्रण
shore
alysis
earnings
agents
mast@@
Secretariat
aras
agenda
canc@@
प्रतिष्ठा@@
anticip@@
1988
ब्लॉक
spon@@
बरहक़
हिमनद
प्रभावों
रहो।
हटाया
माओं
atus
nutrition
अन्तरा@@
sust@@
सुखद
controls
मानचित्र
पिक्@@
endowed
END
à¥à¤@@
भाषाएँ
worm
रेत
expiry
orable
5.2
बरा
kids
Market
Azad
streets
stores
kal@@
शॉर्टकट
Buddhism
persu@@
क़समों
अधू@@
lays
ख़राबी
दश@@
जुड़ने
bed@@
Pati@@
iders
सापेक्ष
pes
ड़ाई
रोम
अक्@@
sq
Sev@@
Specify
हरकत
mic@@
asty
प्रस@@
parse
विधायी
☻
काय@@
eption
countrymen
whereon
कमर
मोल
Ki@@
Reset
आस्ट्रेलिया
frequency
ateral
secretly
विरू@@
Put
chamber
डालता
Java
RAN@@
liberation
फँ@@
secrets
allotted
virtual
बनती
Turkish
फरमाएगा
इतर
demanded
दोस्ती
transparent
comparison
मंडली
निवेशक
endeavours
sever@@
rowing
genes
buffer
Penalty
निश्चि@@
losses
UK
accoun@@
yes
mailbox
heights
संब@@
ोल्@@
250
dha
solved
खाका
1976
ox@@
encoding
चलित
Almast
treaty
तीर्थ@@
पुनर्गठन
निगेहबान
अय्य@@
assistant
आईसीटी
buttons
araja
ayan
NIOS
छाया@@
पर्दा
ंटी
Tilak
academ@@
remind
दिल@@
लड़ी
अपा@@
itous
perish
विकलांग
kindness
लाभकारी
अंदा@@
tot@@
liberty
ताक
य्या
लिकाओं
heedless
gun@@
nationalism
bent
tum
Indra
समाचार@@
प्रवि@@
किताबे
FF@@
फरमाबरदार
साइकिल
महाकाव्य
steady
resh
अनुयायियों
नाल
बूढ़े
isi@@
prev@@
intox@@
absorbed
रहेगी।
संग्रहित
विलय
Property
मंत्र
clu@@
brah@@
conducting
सुंदरता
दर्शकों
ढ़ने
छोड़ना
Lolita
breaks
Oneness
oud
diction
Canc@@
मुनाफ़ि@@
आलोच@@
बीज@@
11.2
infidels
way@@
tendency
मण
Multi@@
भागीदारों
minority
Nep@@
वाष्@@
volumes
tired
Payment
bread
ंग्स
आज्ञापालन
गुणा@@
वानी
palms
diabetes
bore
cavity
निकलना
phenomenon
Reli@@
हाए
सीनों
thers
चट्टान
manpower
राइड
pursuit
मंत्र@@
उद्धरण
io
lt
भावों
preceding
anath
एसोसिएशन
लिपि@@
favourite
आपत्ति
Down@@
Vish@@
dollar
लीला
फ़ैसले
सर्वा@@
mitting
birthday
अरविंद
कित्तूर
प्लग
teen
thy@@
दाँ@@
centr@@
ष्टा@@
यूनिकोड
cot@@
प्रीमियम
Poly@@
Hearer
Maybe
पैके@@
प्रसारित
losing
Radio
testify
utilised
शुद्धता
तीं।
Lad@@
Chem@@
प्रेमचन्द
inating
succession
endure
Alif
grou@@
colleagues
दीप
्री@@
utation
Infrastructure
हिंसक
यथार्थ@@
चय@@
पद्ध@@
अभयारण्य
डायरे@@
इसराइल
गुनाहगार
sit@@
कार्यशील
फीड
सबब
चेरी
र्द@@
stered
उदय
ऊंट
सीखा
SAYS
हृ
ceremon@@
popul@@
Some@@
नोटों
एंगे
क़िस्@@
बुनियाद
शीत@@
Wi@@
shareholders
eline
शर्मा
सुपुर्दगी
desist
ताज्जुब
दीव
harb@@
justified
fs
सांख्यिकी
त्वा@@
ologist
अश@@
मही@@
डरा
बज@@
गुल
essi@@
पिछड़े
ऋणों
पुनरावृत्ति
निवल
Automatically
PAR@@
सूखी
गुं@@
previously
क़्या
संभाव@@
jute
पौराणिक
इतिहा@@
फीसदी
acre
winning
लैंगिक
greatness
ष्य
अंतरिम
immortal
arch
12.2
प्रेमचंद
धूम्रपान
Administrative
पॉपअप
ause
जातियां
मंजिल
dst
Column
af
residents
deplo@@
discrimination
PH@@
समतल
विनियम
वृति
डरे
goodly
separation
tension
ister
Electronics
addressing
Ear@@
ग्राही
Moosa
रूम
leaflet
ट्टी
्या
therapy
SP@@
कैद
ancies
discourse
कीन
endants
gall@@
olf
mechan@@
processor
सांकेतिक
यमुना
upset
tends
Asutosh
Worlds
विस्फोट
4th
अभियोग
utable
sealed
डाँ@@
पंद्रह
मिनी
कल्या@@
CC@@
झुठला@@
अभिनेता
मूल्@@
victims
लाभप्रद
cru@@
बंधी
ोर
Andaman
Stat@@
दुर्गा
स्मार्ट
encrypted
muk@@
Patna
जॉर्ज
कानपुर
दुश्@@
excep@@
विरो@@
consist
bag@@
वालि@@
missions
घटनाएं
extending
लाभ@@
lightning
लक्ष्मण
ज्र
पात्रों
pit
substances
erous
prosper
cow@@
रवी@@
Kannada
subsequently
Mot@@
talked
confirmation
.html
sum@@
छं@@
nour@@
आयाम
tou@@
frac@@
डेड
meter
Prob@@
convic@@
teachings
सिस्को
Constituent
chem@@
retirement
accum@@
थक
पीते
तदबीर
57
cher@@
लानेवालों
Input
dle
मेले
बाब
riti
quest
मुनाफि@@
तिर
तात्पर्य
खोले
षि@@
confused
HIV
nit@@
हिंद
collap@@
अरा@@
कृतियां
बन्दा
adverse
Sit@@
कब्@@
भारित
atively
tioners
बंध
choos@@
फार@@
sty
iration
ester
perspective
सवां
fers
अभ्या@@
किर्@@
मारते
Sub
judic@@
ढु@@
पाएँगे
comfortable
Judic@@
lesser
oo
निकोबार
pi
threatened
Bhagav@@
ज़रुरत
एयर
ह्न
नामित
onds
Ris@@
आचार
divisions
Question
medicines
योजन
fulfill
efully
पाइप
संरचनात्मक
धाराओं
mation
एनआईओएस
Moon
dal
सम्बन्धों
मुम्बई
ira
पत्थरों
deficiency
ंकित
मानकर
तिरू@@
फ़साद
तर्क@@
मयी
phere
पण@@
ook@@
designs
उं@@
नस्@@
बार्@@
life@@
सपने
modification
121
pon@@
व्यवस्था@@
प्रदर्शनी
ii@@
retain
Emperor
iation
देखिए
चेन्नई
पीडित
ड्रग्स
crossing
PL@@
TI@@
अहम
ट्रेड
regulation
ंदा
निदेशकों
eros@@
rum@@
मनु@@
rebellion
poser
notifications
चलाई
अधीनस्थ
icity
lux@@
Lam
wear@@
retri@@
ढूं@@
tap@@
लिहा@@
नियर
devils
brand
गारों
Prom@@
Paste
फॉर
मैसूर
१२@@
Gram
पुनरु@@
पौधा
गह@@
survive
Large
pleas@@
अखबार
sender
organiz@@
Sort
किल
credits
ग़लत
Kanpur
sect
lap@@
graves
खिसका@@
परिपक्वता
authorized
anxious
upgrade
liberal
Copyright
simil@@
destro@@
लक्षित
goodwill
ounce
Lok@@
देता।
slot
eman@@
Memo
बैक@@
दिए।
शः
मर्या@@
behavior
णिका
ont
coffee
eshwar
mes
lofty
Persons
जीवी
Jal@@
मुख्यमंत्री
स्वर@@
अलि@@
quantities
अखंडता
DV@@
concrete
संवेद@@
किशो@@
hibition
zzle
सत्ता@@
rao
framed
पड़ी।
क्यो@@
befall
84
लट
देनेवाले
उत्तेजित
fails
जुल्म
meth@@
gging
दण्ड
लूर
व्यापारियों
Summary
मातृ@@
IV
सिर@@
à¤@@
सुलह
ifying
अस्पष्ट
observ@@
lips
inflammation
वादक
लाह
सतत्
ठो@@
Burning
walked
Rang@@
she@@
ford
likes
सिद्@@
अभिप्राय
न्ति
आकांक्षाओं
अंतर्वस्तु
ंगि@@
ताप@@
worried
adher@@
सीमेंट
साइटों
personally
कृष्ट
उठते
tall
FI@@
deer
इन्त@@
formity
prevention
खोलना
Il@@
astro@@
8.2
जुटा@@
simultaneously
haven
asion
चार्ट
dar
uncle
1946
मनों
efly
Resources
यु
hav@@
पूँजी
अब्दुल्ला
डिरेक्ट्री
Tribes
कार्यकलाप
त्सव
grievances
मक़सूद
उग@@
breed
तव्य@@
हड़ताल
vigor@@
श्रीकृष्ण
mutually
Style
creed
स्टन
इन्स
Bhag@@
जाऊ@@
capture
trou@@
वृत्ता@@
संयोग
Phar@@
ढि@@
दर्शाया
dying
माध@@
बिन्@@
affliction
GTK
past@@
संगति
Corporate
प्रदाता
जानेवाली
यन@@
Governors
Gehenna
जाती।
spor@@
सरकारें
extends
rescue
uted
नहर
श्क
Housing
Nand@@
जार@@
num@@
Village
फरमाई
deceive
नीति@@
अनुमतियाँ
Fore@@
Finally
Def@@
91
रोपण
GDP
ares
Modern
edited
particles
रूनी
trace
बिज@@
coordin@@
वस्तुएँ
अधिष्ठा@@
Base
exposure
नैतिकता
संव्यवहार
कोयले
inge
conceived
¸@@
buying
Review
vert
capability
gt
NHS
Oriya

ª@@
conduc@@
borders
टाइल
तिल@@
Urban
detected
Hem@@
बर्तन
Person
नियन्त्रण
collecting
uniform
territories
excuse
सकार
romantic
asts
Medium
समामे@@
प्रका@@
Bay
समेत
lime
dient
purely
uality
कटाई
Clean
डालकर
Folders
Commun@@
ques
जयपुर
throat
borrower
Mosque
तीत
shirt
तद्@@
आरा@@
reas@@
बहाल
rays
electronics
judiciary
forged
सामा@@
blank
Kittur
तन्त्र
Cost
drought
ug
बुखार
now@@
Den@@
ेगें
plantation
पतली
moul@@
कर्तव्यों
सहेजना
53
नेवि@@
पर्यवेक्षण
esty
lem@@
anding
honest
TLS
स्थाना@@
Bol@@
candidate
लेक्@@
Regulation
छां@@
प्रदर्@@
prac@@
छी@@
ण्ट
scientist
मरी@@
hic
हान
ट्रस्ट
umps
बोल@@
प्रोत्सा@@
चालु@@
presently
discrimin@@
स्मृ@@
Municipal
विषयवस्तु
nominated
score
ac
Stri@@
निष्पक्ष
अनुज्ञा
सूरा
जला
पांड@@
जिक्र
manship
1986
mohan
ican
abiding
ग्रहों
obedient
hes
veil
ट्टा
pense
तिमाही
पीले
छीन
satellite
ग्रुप
tiger
पकर
मन्द
लं
Khal@@
क्षर
diff@@
तिर@@
Anand@@
इकाइयां
Ah
mosque
कठ@@
ओगे।
undoubtedly
कलाकारों
खुदरा
radical
memor@@
यॉ
considerably
burst
Muk@@
oppon@@
frequent
pests
EC@@
spaces
fra@@
भूकंप
enlar@@
Excell@@
राशि@@
संस्थापक
Iblis
बंगला
template
जाते।
शोभा
अपरा@@
ेंः
enduring
देखरेख
बिल्ड
explos@@
reliable
केश@@
FA@@
जावा
ंडा@@
oid
मानदंड
तारीख़
इरा@@
पन्न
1961
Samaj
ols
Universe
तित
झुका
inmates
सानी
Encryption
मिश्र
साहित्य@@
वर्षीय
praises
उठाते
रेड
द्धा
सिस्ट@@
ague
L.
accomplished
host@@
शस्त्र
insight
enforcement
footsteps
जिया
appreci@@
ताश
wake
preserved
राजपत्र
टिकल
Literature
स्थानांतरण
crude
neglected
ues
Chaluk@@
disbur@@
Hom@@
देशी@@
खुशहाली
ईं
मैप
unt@@
tless
Chancell@@
नामा
ishable
ornaments
कपास
कंद
69
¤
inning
ater@@
बड़ाई
णिक
मूर्तियों
समितियां
Bad
impar@@
gent@@
IC
à¤®à¥à¤
Laksh@@
समीप
dings
Fri@@
अत्या@@
क्रियाकलाप
duced
घुमा@@
ताला@@
गिरने
रुख
burnt
खडे
जंगलों
tri
सेन्@@
rear
ट्रैकिंग
संकीर्ण
डें
consequ@@
संदर्भित
रोड
तरा
surgical
ष्टता
चमत्कार
दिलाया
असीम
factories
दरें
symbol@@
Despite
वेट
स्वीकारें
द्वार@@
gin@@
@@
लड़कों
investig@@
dd@@
ranging
stretch
lemen
चोटी
Enterprises
Vin@@
दफा
चेन्न@@
प्यू@@
पूर@@
रुसवा
संघ@@
जार
upl@@
बट@@
तरित
कतार
15th
Brahm@@
observation
वरि@@
वास्तुकला
Directors
outward
प्रतिभा@@
कड़ा
Forum
1974
एट@@
1/2
सूत्रों
निश्चिन्त
कलात्मक
मसीह
calamity
invest
brilliant
avas
धारकों
तड़@@
paintings
wrong@@
भाग्यशाली
जीवनी
परदा@@
Printer
Permissions
global@@
१४
characterized
relates
बांस
SRI
Label
GE@@
नामे
Night
एपी@@
काल्पनिक
Forest
designated
कस्@@
joy@@
cultivated
concer@@
allies
ंडे
वृह@@
tobacco
fitting
जेब
ख़ाक
anch@@
छिड़@@
ज्म
चारे
custom@@
transformed
शिक
जीतने
legacy
तफ@@
Turk@@
सम्मुख
लीकरण
à¤à¤@@
maid@@
absent
ंसे
canceled
प्रतिरक्षा
confron@@
prise
decrease
consci@@
79
amended
विकृत
isher
artistic
चाहू@@
हड्डियों
relationships
पेपर
स्ट्रीम
ख्याति
कम्प
magni@@
मुर्दा
tie
झाँ@@
वरे@@
disturbed
Tourism
Comm@@
pret@@
खुराक
Original
err@@
पूर्वोक्त
श्रा@@
PRODUCT
Audit
क़ब्रों
mandatory
maj@@
boun@@
Commonwealth
हेम@@
98
minded
लसी@@
कैप्@@
स्क्रॉल
abandoned
Everyone
¡@@
eter
कतों
ब्ला@@
Systems
eric
मादक
Issue
औचित्य
Tun@@
Little
दोहरी
prosperous
influ@@
चर्या
DC
tial
dam
ich@@
cep@@
परमिट
बांग्ला
टेन
ब्ध
gracious
rendering
Might
backup
uri
कैल्@@
disability
तंगी
honor
ऐं@@
स्टॉ@@
बदलता
हावी
disobedient
Implementation
obe@@
Latin
Gor@@
protest
हर्ष
assic
चर्च
कुर@@
neg@@
मार्गदर्शक
आएँगे
तीक्ष्@@
बेल
होनेवाले
ou
अवा@@
appa
Pension
arbitration
describing
सनी
पकड़ा
rests
मैथुन
para
cribed
carved
corn
विजेट
conception
भरत
jec@@
ककर
Old
repository
recover
tooth
aren
अर्श
Prem@@
mbox
पर्वतों
बनो
लगेगा
Band@@
दीर्घा@@
dumb
penis
sters
amy
enjoin
SL
prevailing
कसौटी
रूजू
gling
seem@@
मेघ@@
Griev@@
specifically
nationalist
कर्सर
निर्देशांक
निहायत
infl@@
character@@
connectivity
मूत्र
इलाके
weapon
क़ौमे
wretched
पंचवर्षीय
Upon
पिल
मोटा
बैठते
humiliating
prevalent
परेश
arities
रोधक
असमर्थित
Naz@@
वेदों
Nig@@
हिला
sent@@
odes
awe
शल
gage
everyday
Kaz@@
biological
swift
अपनाना
फुट
शान्त
atar
विचारण
Scro@@
professionals
compulsory
बुद्धिमान
भुग@@
विलंब
विकल्पों
evaluation
rage
Vivekananda
सदस्@@
19th
wash
unc@@
गनोम
वेयर
migration
संकेतों
नाफ़रमानी
zen
1971
hy
पाश्चात्य
ताना
Particip@@
licence
MS@@
अवरोध
generic
फरमाए
hay@@
जीते
everlasting
disobedience
know@@
Owner
२५
reputation
Addres@@
क्रू@@
कसम
विक@@
act@@
फ़्रे@@
icians
dynam@@
ateway
Maur@@
जायेंगे।
scales
welcomed
वसूल
PM
मिलान
येगा
मतदाता
उपलब्ध@@
नशीलता
उपक्रमों
पार्श्व
उंड
असंख्य
sciences
रिहा
paired
टोकन
Ever
Creating
पेरिस
HA@@
गिरा@@
नियोक्ता
1980
हथियारों
bering
Gran@@
लाओं
grap@@
निकलती
अहमदाबाद
Royal
लाठी
चैट
roc@@
समझकर
सीएस@@
empowerment
प्रदू@@
परा
tern
Games
बछड़े
surprised
Kun@@
statistics
awn
purified
खरा
Econ@@
decorated
याद@@
Singapore
fig
nas@@
mango
guarded
विमानक्षेत्र
मेगावाट
wrongdoing
Legal
visions
iously
जिन्ना
दुशमन
muc@@
ऊँ
मछ@@
वाड़
revised
बूवत
stop@@
retired
नीलामी
आधि@@
वुड
graded
अच्छ@@
ption
ड्राइवर
exercised
exemp@@
कशे@@
reservation
outed
pix@@
ड्रि@@
formulated
underneath
inflation
traders
misfortune
समाजवाद
Prize
पहने
वाक़िफ़कार
plac@@
अंधेरे
manual
कथ@@
Hill
Signature
lover
२००८
idle
à¤@@
Kat@@
लड़ते
determining
निर्वहन
widow
tens
यहूद
Wid@@
प्रातःकाल
Client
Mysore
बाँध
बायाँ
lex
serpent
क्टरी
औष@@
इम@@
mortality
खन
mechanisms
jus@@
अन्तर
पासपोर्ट
Hanuman
व्यतीत
3.2
लश्कर
यकरण
सज़ावार
Dol@@
वाजेए
धरोहर
cows
shine
UG@@
à¤¨
Schemes
sac@@
narrative
blic
ठंडा
भि
Micro
involve
पहुँचाने
ईश्वर@@
artists
St.
wearing
नियन
मेडिकल
नौसेना
olutions
denominator
१०@@
सहारे
संक्रामक
wooden
पुरो@@
coins
मूर्ख
पहन@@
अनुपस्थिति
entertainment
धड़@@
afflic@@
Art
assurance
सिंगापुर
dhar@@
Answer
लात
उपरांत
Manual
समझदार
medicinal
बैटरी
lock@@
somewhere
डने
बन्दी
Cooperative
कऋ
rel
ढलान
oceans
Recent
शॉ@@
Stre@@
सशक्तीकरण
posted
strates
removing
pain@@
ementary
Final
सिक्@@
jointly
fat@@
zoom
basically
apur@@
Pul@@
Rad@@
Cali@@
intro@@
अनुमत
adds
तूफान
grammar
सघन
abh
possessions
fancy
यीं
stering
अपार@@
ुक
minerals
द्यो@@
ख्य@@
उद्धृत
density
limitations
itations
fel@@
चुनेंः
सिंध
Based
museum
देखें।
invested
PC@@
ek
Mauritius
Sarojini
Kha@@
फली
sear@@
esome
oy@@
खियों
2.2
पियो
plat@@
वशीभूत
मंडलों
फीट
विभा@@
uber@@
मता@@
slaugh@@
Machine
Studies
corrupt
पहचानते
ede
breathing
86
laying
ति।
मुशरिकों
spots
आईसी
एगी
Estate
सौन्दर्य
सुख@@
सिफारिशों
पीना
बगी@@
intensive
CSV
captured
कार्मिकों
crash
controversy
चखा@@
गौरव@@
झुकाव
neglect
रौशनी
Return
त्यों
उंग@@
Index
cure
boundary
वाहनों
बुलाते
जरिये
oul@@
Deb@@
फ्रा@@
tainer
प्रत्युत्तर
गज@@
reser@@
ज़ात
Issu@@
à¤¹à¥
coin
oe
साफ्टवेयर
सीपी@@
binary
delic@@
rational
slay
सर्वि@@
omb@@
कपा@@
lords
महादेवी
trait
र्द
यमान
inct
concepts
समकक्ष
bio@@
pour
rated
receives
meas@@
वाहिक
संहार
exclud@@
extract
DI
enligh@@
Poresh
define
सार्वभौमिक
scroll
इराक
install@@
Work@@
प्रायोगिक
अन्तर@@
Gh@@
subordinate
Bookmark
sleeping
क्योकि
Joh@@
ubs
चलेगा
बक्सा
dollars
shrines
ype
तेज़ी
वैधानिक
Malay@@
perpet@@
तिया@@
ornam@@
वायरस
deprived
nd
स्लो@@
criteria
भागने
हिस्से@@
अंचल
Jinnah
ग्रा
रूपांतरित
डूब
exceeds
clothing
अभी@@
लहर
withdrawal
रेखांकित
गम्भीर
dol@@
entive
crossed
१८
र्ज
pond
97
क्रियाकलापों
Washington
meaningful
चारित
AW@@
शुक्रा@@
Sending
hip
gras@@
sang
अधो@@
step@@
hr@@
Banking
env@@
tit@@
20th
thoroughly
जम@@
perf@@
duct
Log@@
confirmed
रंगीन
आख़ि@@
इबलीस
बूट
quote
titled
funding
विफलता
Baba
निर्देशन
cult
sati@@
Notwithstanding
ecture
Paris
condemned
publish
Prince
athi
ATES
नोडल
gram
lan@@
हैंड@@
गोद
प्रश्@@
refl@@
vis
मल्टी@@
outing
congratulated
BE
पत्तों
लार्@@
ranges
चार्ज
izations
र।
Player
amidst
1.5
ख़ज़ा@@
privileges
plun@@
अका@@
क्रियाशील
ुन
सैर
णकारी
Works
नागरिकता
armies
&apos;The
Entry
यात
विंडोज़
resurrection
Website
प्रतिष्ठान
matches
चाप
compliance
Bookmarks
pin@@
कामगारों
Medic@@
खाकर
Dru@@
lakes
अनुभाग
visitors
Chhattisgarh
अली@@
आदिवासी
Tea
क्ल
तत्वदर्शिता
चौथे
बदकारी
रोकता
bomb@@
अस्वीकृत
revolu@@
इल्ज़ाम
sphere
ilit@@
घी
यॉँ
श्रद्धांजलि
�\
तेदारों
unjustly
planting
घंटों
commission@@
updates
गुजर
अतिमानसिक
लाये
1973
tool@@
हों@@
disposed
introduce
पोजीशन
जवान
neutr@@
obstruc@@
approached
à¤²à¥à¤@@
auto
travelling
अनुकम्पा
नंद
सचि@@
favoured
यनों
usion
शरा@@
Summit
psychological
let@@
नाप
ffs
दू
Sind
लड़
Dad@@
thereon
Je@@
Cross
claim@@
जियाँ
सुविधाजनक
existed
उन्मुख
Mim
किरण
हीम
Keyboard
numer@@
अवस्थाओं
न’
shut
रक्षण
typical
Political
Height
COUN@@
क्ता
च्छेद
गौण
ministry
vent
हंस@@
py@@
उठने
गिनी
tranqu@@
forth@@
expanding
Brahmins
ड्राफ्ट
guardians
वक्@@
aker
impressed
chro@@
fox
साम्राज्यवाद
@@
scrut@@
आदर्श@@
Community
junc@@
significantly
coverage
atable
gi
invent
jack@@
दस्त@@
inaugurate
infected
पल्ल@@
ईद
ree@@
रकार
तट@@
Fal@@
ling@@
Along
hears
डियां
Examination
grading
जीता
निरं@@
समै@@
बाला
Welcome
रहेगें
sided
viewed
orate
Fre@@
उदर
घिरा
खट@@
कल्प
coastal
1949
गोपनीय
adjustment
poo@@
striking
inflic@@
Veda
Ahmedabad
सात@@
empowered
सद्भावना
ao@@
acle
मुकद@@
वर्गाकार
कक
डेविड
supramental
ग़ज़ब
manuscrip@@
तार्किक
डाल@@
Nicobar
classified
सब्जियों
महे@@
bellies
हुक्@@
धुंध@@
नीयता
यिका
न्यासी
टेक्नो@@
urged
propag@@
92
cable
प्रशं@@
celebr@@
Narayan
recompensed
घाना
miracle
पीड़क
सेक@@
थोक
विश्वव्यापी
थम
Himalaya
तले
Puri
yana
कीं
notify
निर्दोष
Sus@@
headquarters
push
Quar@@
lal
अंकों
विहीन
छत्तीसगढ़
स्ने@@
सपना
ढ़ा@@
गुंजाइश
elope
परिष्कृत
ground@@
beloved
सारा@@
देशा@@
Browser
Opening
डेल्टा
ancestors
टेक्स्ट
दरवा@@
VI
स्वादिष्ट
लाक
confirming
entre@@
संक्रमित
breach
दावों
CHAN@@
determines
दिशा@@
प्रायोजित
लकीर
dense
वियतनाम
Treat@@
तकनीकों
objec@@
निर्धार@@
marble
ख़्@@
m.
Shakti
anj@@
butter@@
निब@@
was@@
accepting
बलता
मुना@@
essness
Cel@@
urine
vessel
resi@@
क्रॉ@@
mistakes
मायने
Simple
इलेक्ट्रा@@
SPEECH
recovered
befalls
दहला
associations
ames
Third
एक्से@@
sibility
transfer@@
guiding
क्ष्@@
Ctrl
संप्रदाय
verified
Premchand
convenient
tracks
successors
SI
ees
minim@@
Forces
hak@@
Shaitan
Bap@@
Commercial
लिखत
हॆ@@
disclose
स्तानी
स्कोप
zes
Ut@@
Grace
क्रमण
brack@@
खूबसूरत
coconut
best@@
acres
रीसेट
मॉड@@
बृ@@
रीन
Budget
purchased
bite
honourable
ub
operatives
दरजे
inferior
Offices
छाती
entally
स्पेस
एटी@@
विधानमंडल
had@@
बैठी
मिटाया
Arunachal
निष्ठा@@
अखबारों
गाह
सरी@@
obeys
encryption
दर्श@@
mortgage
काय
कार्यकर्ता
गना
Revolution
प्रतिमा
Freedom
रोज@@
अंतरित
चट@@
जनित
इन्साफ़
emen
quali@@
उदाहरणार्थ
उपाध्यक्ष
prote@@
नार्थ
MENT
tragedy
सायिक
निगमित
त्म@@
tenance
preced@@
नम्बर
tioner
सीखना
स्ते
सिलसिले
stup@@
isy
Typ@@
controlling
Uttarakhand
rich@@
receipts
मद्@@
मीम
wrap
passengers
adorned
एना@@
slip
stra
Fol@@
हाशिया
OP@@
asunder
handled
insol@@
Important
producer
DAC
fulfilment
क़ाबिले
grams
तंत्रिका@@
यकता
inclined
बोलना
jun@@
SV@@
illary
लाएगा
यें।
agro
उखाड़
मैदानों
translate
जलि
governing
यापन
व्याव@@
सम्मत
blocks
संस्थापन
Nanalal
comprises
woo@@
pointing
इंस
बाते
इस्लाम@@
coat
adver@@
Prophets
diagnos@@
फाउंडेशन
Bharat@@
essive
चुन@@
विशिष्टता
फ़ॉर्@@
जागरूक
बसा@@
erad@@
econom@@
lav@@
छुपा
enly
निवेदित
kidney
द्वि
lectures
पारी
अज्ञान
ट्री@@
reporting
जोन
Reference
indu@@
photograp@@
द्वं@@
servers
literally
Preet
sperm
पि
hast@@
कुंजीपटल
फेरा
Appellate
worms
aja
craft
posi@@
Kab@@
sessions
काए
मान्य@@
प्लेट@@
departure
respects
LS
osity
छोड
नक्शे
परिपत्र
झूठ@@
क्ट@@
ण्डी
बहा
मन्दिर
appreciated
हमी
श्लोकों
बताई
21st
merged
aken
supplies
सॉफ़्टवेयर
distr@@
chron@@
लार्ड
rupee
ported
अहसास
deserve
गर्भा@@
dating
weep
sider
कार्मिक
गढ़@@
username
निर्जीव
celebrations
सब्सिडी
नामकरण
Tools
vouchsafed
डिजीटल
illiter@@
rites
ty-@@
तरण
प्रशंसनीय
उपभो@@
rituals
otten
sorcer@@
क़त@@
governed
Pap@@
sung
कोशिकाएं
explains
21@@
classification
औषध
grow@@
fame
vii
कृत्यों
indian
flav@@
॥
bac@@
संप्रतीक
प्रधा@@
withdrawn
सैकड़ों
enh@@
challenged
RAM
Jaipur
outs
viv@@
पाएंगे
मालि@@
ढूंढ
ल्टर
नील@@
FOR@@
गाहों
wasn
lift
likeness
Volume
Sharma
बढावा
attle
वर्त
समुद्र@@
disable
निर्देशक
Pre
एंड@@
jj@@
batsman
तुच्छ
scro@@
लम्बा
बाज़@@
inclusion
whoso
पृ
reverse
mirror
अदा@@
तारीफ
दंड@@
fingers
lighted
weaker
devotee
गाः
anian
सहयोगियों
peculiar
मेवे
lecture
कीटना@@
विया
originated
उद्य@@
ग्रीवा
शताब्दियों
बक
compar@@

SD
पड़ोस
इंत@@
हाई@@
चढ़ाई
इंसान
compound
rehabilitation
स्को@@
जोरदार
alli@@
पहाड़ियों
Constitu@@
blind@@
स्वच्छ@@
check@@
मसा@@
प्रतिबि@@
बेगम
Items
मरना
ग़ैब
vul@@
शत@@
स्ट्रा@@
thal@@
gers
sory
किस्तान
देखती
Atlantic
uk
1951
पीढ़ियों
arg@@
कुन्@@
unfortunate
शें
establ@@
दुरुपयोग
१३
hungry
tage
bare
Starting
dow@@
सदा@@
बचाया
1930
dreadful
convenience
Building
pav@@
मिथ्या
हज
Ha
nursing
initially
व्यवसा@@
sickness
mail@@
List@@
Lat@@
सीट
transition
Ayat
झं@@
boundaries
persist@@
concluded
फील्ड
क्यू
प्रस्थान
6.2
nesses
Consul@@
wherefore
pathy
देगी।
random
door@@
vegetation
Python
दादी
unlawful
cin@@
हाय@@
प्रबन्धन
Dom@@
निरे
विश्वास@@
जेने@@
abuse
Meas@@
खिड़की
कनी
धियां
ढूँढ@@
क़द्र
scat@@
Loo@@
MOR@@
Various
Nil@@
obeyed
alaya
Prompt
अन्ध@@
सुगम
हॉल
महाराज
cha
gy@@
खड़@@
काशी
जुटाने
चकित
दुर@@
abha
टाटा
सेफ
nan@@
Hebrew
reb@@
कृपा@@
expired
Job
व्यू
Encryp@@
1f
participated
8.@@
सामंजस्य
शायर
कविताएं
बेल@@
96
कराए
लंबवत
प्ले
Repe@@
Spec@@
age@@
whe@@
घ्न
वाक्यांश
सेकंड
critics
arrange
achar@@
अनुबंध
Cooperation
elaborate
Real
वर्जित
tton
विजेताओं
neighbours
Radi@@
sentiments
बीजों
हिन्दुस्ता@@
ror
बढाने
alcohol
कारो@@
Socialist
ador
अरुणाचल
thunder@@
सर्जन
बांध@@
पूरब
किस्मों
यांत्रिक
इनाम
जमारा@@
नवाचार
reveals
टियाँ
साहा
orthodox
dible
measurement
Nobel
writ
larvae
Shankar
saints
tern@@
वगैरह
187
popup
Yamuna
oming
Chandigarh
तरंग
edic@@
तिन
kets
ख़याल
परिप्रेक्ष्य
गपशप
आश्वस्त
remem@@
यती
DL
दिन@@
विद्यालयों
adequ@@
प्रचलन
assessed
kitchen
ग्र
गीर
नाइट
बर्निंग
WAR@@
निष्कर्@@
bacter@@
बदलती
फैलाने
मारता
Convocation
orr@@
तारामंडल
Priority
अपराधों
अकारथ
वर्गमूल
आयुर्@@
prevail
grid
घनत्व
नर्म@@
रचित
दबाएँ
Extension
lotus
बैंग@@
लग़@@
Draw
rotation
astronom@@
aqu@@
yar
सूअर
Fav@@
मांस@@
expon@@
ठित
सहसा
भट्@@
बास
Culture
wari
Production
ryp@@
Currently
rough
Cyrillic
सिका
नामांकन
न्द्रनाथ
pillar
gement
टीन
8th
GL
driving
appropri@@
रक
corpor@@
boot
Profile
shortage
निर्धन
भगव@@
फंड
भटका
भूगोल
वला
equitable
बस्तियाँ
tari@@
परिधि
directors
distressed
TER@@
bomb
Saf@@
lifel@@
disturb@@
युसुफ़
1977
delighted
नरसिं@@
णो@@
ईस
रिश्तों
Nuh
अस्थाई
PRODUCTNAME
foremost
नियति
अमेरि@@
emin@@
स्वर्गीय
शेखर
Low
ellers
उपरोक्त
आईपी@@
passwords
क्रियान्वित
शैतानों
warding
spective
Imm@@
auto@@
Inspector
मः
distribute
आन्तरिक
ताज
à¤à¥
Deccan
senses
लम्ब
सुलभ
निर्माण@@
Bil@@
सहभा@@
Age
rics
chair
1857
urs
आसा@@
fear@@
crip@@
erated
ंचा
tural
morality
पुट
प्रश्न@@
दुनियावी
lem
उम्मीदवार
reign
reception
judged
publ@@
cuts
condol@@
Saint
पात्रता
1984
distinc@@
indirect
oh
ऑफिस
कुमारी
emperor
ऊँगा
दहकती
अभिया@@
राक्ष@@
stri
reads
wan@@
Ary@@
TER
छंद
arbitr@@
कटि@@
बुद
poster@@
Range
बाण
gifts
एजें@@
ग़्@@
प्राप्त@@
Hit@@
compromise
पूछना
परिमाण
सकू@@
angular
emotions
Activ@@
षकों
शिष्ट
Day@@
pep@@
manip@@
लिंग@@
orphans
फर्श
फुट@@
dissem@@
कुर
सुलझाने
king@@
1994
TE
लार
उल
Dictionary
गड्@@
cover@@
dhi
Travel
alleged
Tend@@
Cut
gaining
केन
thereto
क्योंकर
Modi@@
hul
क्लास
gau@@
जनगणना
Tripura
mana
apar@@
रिफाइ@@
boxes
Wait
deniers
Thomas
आवंटन
बढ़ोतरी
इलेक्ट्रॉनिक्स
लें@@
cros@@
राजनीति@@
James
Pass
liabilities
atis@@
त्म
smell
scholarship
globe
ample
envisaged
Sund@@
whichever
6th
Chang@@
विल
काटें
expects
निको@@
ग्यारह
engineers
eases
conflicts
Govt.
Between
विचारा@@
Notice
inquiry
Wa@@
shoes
africa
विष्ट
तीकरण
छोड़े
dimensions
ASCII
CPU
Unfortunately
किट
राजन@@
देशीय
राशि।
ases
gm
मेजबान
जेहाद
Plant
Syri@@
एसएस@@
princ@@
canal
बेहतरीन
Grand@@
निकटवर्ती
wav@@
after@@
bin@@
मरतबा
पेशी@@
व्यं@@
रिट
Parti@@
islatures
देनेवाली
डिबे@@
six@@
à¤¿@@
आत्मविश्वास
म्बित
bear@@
A1
dering
मूर्ति@@
ब्लै@@
आकांक्षा
Gol@@
¯
Missing
deposited
गुच्छ@@
पड़ोसियों
गुणगान
वारे
wandering
निम्नतर
ट्रांस@@
हास्य
ून
शैव
guile
ध्र
correspondence
जीना
नीले
gene
कबी@@
Unless
Vietnam
लिं@@
®@@
शिका
बनारस
spectac@@
अपलोड
destined
Tag@@
कहानियां
kap@@
Dutt
माणिक
prud@@
उच्छेदन
varying
बला@@
Burn
अनिवार्यतः
torn
जब्@@
Recovery
incar@@
ढक
डू
लेटर
नामी
SO@@
anism
artic@@
अनुशं@@
मुसा@@
निपटा@@
दुरा@@
evils
hers
w.e.f.
खारिज
auspicious
lied
सहिष्णुता
झुठलाए
toral
ग्लोबल
bars
भास
La
practised
ूर
खार@@
intervention
सुहा@@
अज़ाबे
03@@
त्रिपुरा
प्रण@@
गोपाल
जिन्नात
बद
ल्लाह
हवाओं
along@@
pipe
नाशुक्र@@
Masters
ratic
प्रस्ता@@
Rol@@
sali@@
verify
survival
बीवियों
कव@@
journe@@
प्टर
योजित
All@@
mindful
perfectly
बली
paragraph
दाल
यों@@
टन@@
Spe@@
Restore
testi@@
वध
कम्प्यू@@
anks
बाग़ात
डिज़ाइन
लगाये
फन
condem@@
advancement
ship@@
uch@@
राख
attachments
proceeds
आल
पारम्परिक
yar@@
chart
businesses
गुनाहगारों
cautious
छोड़ो
ax
permits
लॉन्च
परिपक्व
gian
Film
Vajpayee
cluster
ystem
depreciation
speedy
legislature
seated
छुड़ा@@
असम@@
Bet@@
Station
poison
Lar@@
giver
प्रतिबंधित
governmental
seller
vice
पेशकश
दिवा@@
ª
graphics
करुणा@@
ंगी@@
राज्यक्षेत्र
percep@@
पढ़ो
uli
तोड़ने
bio
Documents
Allow@@
बंधु@@
regret
persec@@
ARY
arrow
संतोषजनक
अपरिहार्य
विकिपीडिया
वर्ल्ड
idable
भीषण
terly
ंप
मानसून
delicate
treating
विजय@@
advocate
गैर@@
Chak@@
beli@@
FO@@
ल्क
Sufficient
Monitoring
विस्त@@
मेहरअली
Operation
strings
प्रक्षेपण
मनाही
Liter@@
underlying
bec@@
ml
stroke
possibilities
गुल@@
दना
Panj@@
औरों
रेश@@
ऐब
औषधीय
constructive
incoming
Country
आला
Mol@@
कार्यकर्ताओं
rying
पंच
Still
डाउन
शत्रु@@
chan@@
doer
टें@@
मारो
बंदर
स्की
trunk
तमन्ना
neighbouring
किरायेदार
Single
चौपायों
खाल
कुँ@@
enues
37@@
entures
फुफ्फु@@
itive
sulph@@
emi@@
UR
sample
पुरम
Peti@@
brow@@
ंव
उपनाम
सांविधिक
babies
weekly
सज@@
चौथाई
आम@@
Shu
सीमांत
सेटिंग्स
advant@@
अड्डा
निन
डिजा@@
epi@@
depos@@
फोकस
मानदंडों
PRES@@
orious
¥@@
shake
आखेरत
नफरत
conqu@@
प्रार्थ@@
tune
rained
publishing
istics
पति@@
committees
अनदेखा
नेके
विंग
zer@@
विष
Everlasting
furnish
acknowledged
आभूषण
rit
भया@@
angu@@
decreas@@
घोषणा@@
fail@@
नागर
वृक्@@
उजा@@
ताला
माण@@
sorry
Swe@@
aspir@@
सते
इटली
impressive
संगण@@
ongs
tyrann@@
विकृति
Portuguese
planted
drum
Rot@@
ऑपरेटिंग
उपास्य
कृत्य
द्विआधारी
Gos@@
notation
मूर
मांसपेशियों
गात्मक
ficial
resurrected
Marketing
हार्ड
curve
negotiations
चय
खतरों
Michael
यथासंभव
voting
emic
संयम
taxation
popularity
miracles
शिथि@@
affecting
brethren
कले@@
10th
मनाने
Exec@@
hospitality
लेपन
क्षो@@
Introduction
जिन्होने
लोगो@@
को।
landlord
Highlight
alli
Varma
arer
miss
objection
AC
asia
आसमानी
staying
Turn
Revenue
earing
ocy@@
1942
हां@@
गुहा
BE@@
विभिन्@@
तेदार
rat@@
youn@@
Module
subscri@@
physics
mentation
shortcut
Unbelievers
आराम@@
भूषण
क्षम@@
देश्य
स्त्रियाँ
२०@@
Face
smart
estive
\@@
रोके
राष्ट्रीयता
औप@@
forgives
धात्मक
bert
circulation
खोख@@
shifted
द्रिय
120
reflection
ifies
zones
खं@@
ferred
rect@@
isc@@
respected
196@@
Cho@@
vious
उर्वरकों
ene@@
systematic
साइड
झलक
tale
abandon
graphy
safe@@
चाँदी
Prak@@
विश्वयुद्ध
FDI
Saudi
detect
associ@@
aston@@
क्यु@@
पूछने
पंजी@@
measuring
सम्बंध
बाधित
स्क्र@@
promoted
पोषित
सक्रियता
isolated
Struc@@
जरूर@@
Channel
Fig
decor@@
riding
wet
उष्@@
ण्डा
जाये@@
sixth
सिफारि@@
clauses
800
यी@@
poss@@
assisted
sho@@
contem@@
rown
attraction
ower
jects
इफ़तेरा
exam@@
ilance
निका
instant
1985
ईल
patri@@
fire@@
पराजित
व्यक़्ति
gro
डकर
पिताजी
पिन
आईएसओ
अलमस्त
सिल@@
asleep
Federation
पेश@@
ंत्र@@
Attachment
चढ़कर
एप्लिकेशन
compact
copper
co-operative
revol@@
pipes
लांटिक
Using
पर्व@@
differenti@@
ffer
vic
सीसी@@
निक्स
विन्द
विशाल@@
warri@@
Recom@@
lit
देह@@
gender
tips
precise
र्डन
हेल्@@
लगें
जुदा
idential
तालि@@
हड्डियाँ
करूणाकरEMAIL
disabilities
intestine
ordinate
भविष्यवाणी
asters
operated
Did@@
पीड़@@
शिल्प@@
प्रया@@
आनंद@@
खुर@@
वेदना
annum
Laws
अमन
icip@@
ankar
करुणा
AIDS
oter
पिया
8859
टार
strategies
labourers
कमरा
substituted
मरु@@
rises
Subversion
क़दर
वकालत
attributes
Philosop@@
chronic
एंटी@@
desp@@
swallow
स्तू@@
बौद्@@
figh@@
स्पेन
sil
घड़
स्की@@
दीर्घकालीन
Palestine
eon
कन्या
fusion
खोली
मग्न
कुर्सी
गुर@@
practically
moderate
ET
11th
सोल
हर्ष@@
दय@@
assing
agitation
emergence
कड़ियाँ
placement
काबू
बहका
बंधों
differed
Gandharva
ayed
ड्राइ@@
aun
Scot@@
अल्पा@@
Cause
कतरा
ंचर
proclaimed
फ़ायदा
cheap
फ्री@@
snat@@
rail
1970
finish
trends
aniel
Ken@@
ethical
जोड़ता
भूमिगत
चैन@@
assure
अहं
lawyer
गाँधी
modes
asing
लोर
ण्य@@
milit@@
din@@
indra
Senior
subj@@
ki@@
बन्धन
alis
रचनाएं
sanctuary
ऎ@@
Ghosh
inheritance
बाघ
mates
dless
ज्ञा
वच@@
disobey
nemat@@
Castes
solving
discre@@
Nagaland
Telec@@
segments
directories
bags
उक@@
ख़ुश@@
angles
mouths
निवेदिता
disgr@@
युक्त@@
faul@@
ransom
खता
à¤«à¤¼@@
नानालाल
फेरकर
magazine
समाविष्ट
दर्शाती
टूल
गर्भावस्था
chang@@
surplus
वर्तित
upta
ulent
धान@@
edition
नेंस
mill
कच्चा
proceeded
Split
चें
semin@@
signing
आलेख
Rah@@
aper
bands
बहुधा
listened
Contents
पडा
Sc@@
निकालता
socialism
त्ते
Ans
निश्@@
strip
Panchayat
वायर@@
ग्रेट
mock
corners
Magistrate
विविध@@
JavaScript
oda
शोध@@
igns
णियां
मुज@@
Grad@@
tow@@
सर्किट
matic
तुझपर
फ़ोल्@@
Generally
emphas@@
Sach@@
अनावश्यक
एचटीएमएल
draws
रियां
etter
meets
SW@@
ims
एनकोडिंग
carrier
मूल्या@@
बलि
पद्य
बूझ@@
Sen
माउन्@@
प्राधिकारियों
ट।
voices
critic@@
indication
केबल
contempt
दुरुस्त
Belarus
मोर
दूषित
revolt
Fire@@
guest
कांड
गाँ@@
impe@@
Cricket
कसरत
Words
Body
अफ्रीकी
idol
Cisco
suspended
ensured
बाग़@@
eli
couches
मिता
मणि@@
inspec@@
निष्का@@
GH@@
Prat@@
prh1
भयभीत
फ्यू@@
प्रत्ये@@
à¤®
1939
Ok@@
लिफा@@
Ty@@
Arabia
tabs
Integr@@
suppose
SL@@
अंतर्निहित
Accoun@@
enjoined
shock
बंधित
PART@@
deaths
बदलकर
सेतु
शिशुओं
Chair@@
mamm@@
अक्ल
frames
Kul@@
remedy
ूद
righ@@
आओ।
ँगे
Deleg@@
मदी@@
smoking
Internal
somehow
पहुंचे।
विरा@@
intercourse
कतरा@@
preceded
hibit
valued
Param@@
पार्श्@@
परिवर्तनीय
इन्द्र@@
स्या
....
well-@@
PKCS
alignment
घुड़@@
आविष्कार
ब्रह्मा
hub
Sciences
Verma
आश्र@@
damaged
टिड्@@
aan
जानें
defi@@
authors
persist
versed
क्कर
तलब
नाजुक
प्रोफाइल
रजिस्ट्री@@
नती
प्रारू@@
rement
दायाँ
walks
Sankara
iced
signals
victim
contr@@
दुरूस्त
eag@@
ठन्@@
पंक्ति@@
पत्रक
शास्ति
निरीक्षक
autonomous
समझाया
चिन्हों
ticket
हला@@
sculptures
Tag
धैर्य@@
परमात्मा
ॆ@@
वलय
ference
क्षु
जें
रसोई
incidence
ख़िलाफ
sisters
दशाओं
suggests
gles
आभास
restra@@
bond@@
ength
idental
सार्@@
प्रचंड
bookmark
audi@@
ऑंख
luck
laimed
terri@@
Highness
producers
हानि@@
स्कं@@
inherent
vial
bic@@
batch
ority
सिलि@@
वार्षिकी
सम्भावना
icating
प्रदा@@
चौड़ा
खाया
Democratic
laden
distinguish
पैड
संकुल
ग्राम@@
Territory
adem@@
भवभूति
seventy
SER@@
isol@@
odd
तिका
excav@@
खाँ@@
ordination
micros@@
belong@@
Early
argued
पत्रिकाओं
दीवाना
Srin@@
County
tigh@@
worldwide
हनुमान
सूझ@@
♫
resol@@
विल्@@
Archive
^
cum
अपनाए
१३@@
आधारशिला
Bhim@@
avert
आभार
स्यों
magicians
kilomet@@
म्र@@
जमानत
households
Reload
पहुँचती
Anim@@
Petroleum
mented
उग्र
tray
shining
विद्व@@
p.
Units
अंक@@
orite
compliment
strated
Meanwhile
telecommun@@
नात
नियमावली
लेगी
gram@@
vable
essional
disappeared
bhai
prestige
एमएल
विलो@@
unlike
क्रियात्मक
smile
atom
तालमेल
dark@@
सवेरे
यात्मक
commem@@
रामलिंग
skelet@@
immovable
chains
मलेरिया
ras
पक्की
treasures
ज़बरदस्ती
Creation
Lakshmi
पूंजीगत
वीय
Devanagari
विनियमित
डराता
oll@@
gratitude
alise
Roman
अकारत
asw@@
अवशेष
.09@@
जियों
Higher
aman
परवर्ती
sync
ardi@@
Manage
मंगो@@
fundam@@
मिटाकर
घुस
enrich@@
समानांतर
oor
less@@
रेज़ा
kid@@
हिन्द
ऑपरे@@
कीड़े
pearls
शूल
॰@@
isance
बराबरी
Mizoram
regulatory
उदाहर@@
गांधी@@
हण
प्ली@@
sensi@@
आनेवाली
dioxide
कक्षों
alizing
affordable
Terminal
Max
Europeans
Ravana
docum@@
array
school@@
नवीकरण
बॉल
शिविर
मं
फ़ौ@@
sponsored
श्रेणी@@
Italian
ule
चर्चा@@
☻☻@@
assed
scenario
embar@@
safely
lean
रोकना
abst@@
modest
watched
पत्य
Distribution
Character
कचरे
स्वराज
olog@@
तिरस्@@
Brahmo
illi@@
prohibited
holiday
वाता@@
equipped
ख़ू@@
अनाथ
आस्तियां
patent
mathematics
सेवकों
निकास
निष्ठ@@
disobeyed
imperative
माई@@
डब्ल्यू
उभर
सरोजिनी
बिग@@
तात्या
Track
linguistic
fiscal
kal
पैन
revive
आजीवन
Mari@@
1965
appearing
अनुकम्पाओं
edy
कार्रवा@@
वफा@@
श्रोता
क्य@@
lad@@
fabricated
DB
शिश्न
उपलब्@@
disclosed
तथाकथित
Raman@@
gra
फ़ाय@@
Week
epid@@
cinema
उच्चारण
prefer@@
Long@@
डीपी
गयाः
शुएब
Witness
transl@@
swelling
हाल@@
पलटकर
Contin@@
app
भूत@@
laboratory
रोमन
dx
flexible
चश्@@
यदुनाथ
dem
peasants
चाचा
Alone
चालय
recipient
ढी
समूह@@
Govern@@
na@@
availed
प्राप्य
tala
शेल
वक्ष
Checking
भागे
Slo@@
विकि@@
पाचन
डैक
प्लो@@
मज़बूती
à¤à¤¾
ट्रॉ@@
फ़ज़ल
legitimate
Theme
असह@@
DN
contracts
asted
बैकेंड
magnificent
pesticides
सरत
इलै@@
अत्याधिक
याल
realistic
spectrum
hered@@
udes
repayment
प्रयोगों
क़ूवत
व्युत्@@
clients
अदृश्य
धानों
गईं।
पत्रा@@
insur@@
GRE@@
meditation
विस्तार@@
Squ@@
चलें
phy
शालाओं
शासकीय
administered
जीपी
लिखकर
Kalam
authorit@@
मोहर
कॉफी
kil@@
उजागर
तालीम
वीर्य
ico
paradise
ष्टियों
encomp@@
acks
दराज
तौरैत
buried
ument
घुमाएँ
ux
SELECTED
Undo
इंटरफेस
AIM
उदार@@
meanings
सबवर्सन
seed@@
जें@@
flee
लव
मारना
votes
हम्द
तानों
NT@@
राजदूत
खां
ENTS
attainment
वारा
identical
Swar@@
मानवा@@
स्टील
भरे@@
bred
Absolute
कार्यवाहियों
cellaneous
निषेध
gallery
महत्वाकां@@
prh2
skins
bon
admon@@
recommendation
à¥à¤@@
Tree
जनी
Territories
issu@@
त्याग@@
ATAL
कैले@@
उकसा@@
तुम@@
Remo@@
gentle
breeds
गौतम
अमृतसर
titles
महावीर
चिपकाएँ
Southern
emer@@
श्व@@
93
investi@@
Amritsar
tenth
स्वामि@@
helpless
activ@@
एड्स
lings
बुलाने
Frame
till@@
detection
१६
लोकल
हंस
admin@@
moon@@
seventh
खान@@
संकोच
eved
Blue
Days
lier
inous
expres@@
ISBN
ंति
घरा@@
व्यू@@
gaz@@
Vaishnava
passenger
अनन्य
सर्व
मिजा@@
itably
काउं@@
Generic
cancelled
nam
घुमाव
beasts
vibrant
शिला
संप्रेषण
विद्
accru@@
ध्रुव
pilot
Olymp@@
अदायगी
म्या@@
चौधरी
6.0
stan@@
मेगा@@
ometry
vulnerable
edi@@
Tul@@
Calcul@@
शनरी
परिपा@@
mix@@
ults
exag@@
जेम्स
aning
लियत
उपराष्ट्रपति
क्रेता
प्रस्थिति
टह@@
iss@@
endant
चारियों
कैम्@@
मंत्रिमंडल
oti@@
टिका@@
प्राय@@
unk
भवनों
chromosomes
प्रेम@@
ask@@
चढ़ा
retained
configure
न्सी
लाइसे@@
च्छा@@
1975
misery
versions
मूलक
बेलारूस
111
dependence
envis@@
emed
rush
gov@@
लाएं
livestock
marginal
जोकि
doubled
shoc@@
नगरीय
vaccine
estic@@
भय@@
ीक
ीत
stret@@
यती@@
सत्र@@
aki
जाएँ।
reflects
offences
antry
बख़्@@
acha@@
अंडों
रस@@
applying
utilization
१९४@@
pocket
Mong@@
कुंजीपट
foundations
Sound
मरे
seizure
Refresh
आक्रम@@
strayed
स्नायु
विदों
mahal
attempted
शाप
omination
Lock
turer
भ्रमित
configured
मोन
laboratories
idden
SIDBI
AY
अनिश्चित
लेगें
किराये@@
हम्@@
floating
Jubilee
revival
Play@@
fond
Tender
oneness
avar@@
¡
मछलियों
à¤¶@@
शब्दकूट
enlightened
Custom@@
RI
Price
Appe@@
झाई
Cogl
प्रस्तुतीकरण
मापी
varies
Deposit
ओडि@@
heavily
विश@@
पुतली
अश्व@@
ib
zer
tained
7.2
ग्रीन
mocked
neighb@@
udra
thful
asm
battery
एक्ट
Padma
fresh@@
winners
ogy
charging
च्छेदन
orted
नाए
devoid
संक@@
calculation
मुमकिन
1,0
Term
चौथा
contempl@@
डिबग
assign
पीला
महाविद्यालय
बन्धक
misdeeds
sour@@
दख@@
र्ग
homage
विचलित
herd
bush
ग़ुलाम
Eng@@
कुत्ते
strictly
Nal@@
nodal
प्लग@@
मीम॰
स्टिक
orphan
Bs
घेरा
manufactured
instances
consume
Institutes
साझे
rubber
Gold
jit
emotion
बीजा@@
essays
Kolhatkar
मले@@
conclude
ण्डे
अत@@
चिन्ता
ग़म
Jagannatha
gent
घनी
लक्ष्य@@
Swit@@
गाथा
implied
श्लोक
कारस्तानियों
पढ़ें
चुनना
निश
उद्यमिता
prize
structural
ल्य
आयातक
चन्@@
eaten
apt
वना
शियां
Asi@@
वेदा@@
sub-@@
यकों
बाधाओं
hut
VAJPAYEE
सुलैमान
eager
multiplication
साहि@@
नाद
socialist
magician
compatible
ंगार
ड्डी
appeals
1962
humour
dropped
clusters
शल्यक्रिया
94
Hand
overtook
abstract
particip@@
inform@@
बाइट
vig@@
improvements
देसाई
पेशवा
editing
pagans
hind
बजाएँ
लवी
समाधि
कमल
Ms
असमर्थ@@
inth
gun
Model
घोड़ों
स्पं@@
ग्रै@@
जरु@@
cooked
SPEECHES
बक्से
स्ति
exed
ऊँटनी
अर्थशास्त्र
कमी@@
interference
ape
विशेषतः
variations
participating
impose
provider
dual
Progress
यश@@
Target
थ्रे@@
लेनदेन
hostile
translator
खरगोश
पूछा।
atics
deem
तरों
Terrorism
1960
Physical
pts
hym@@
ईरानी
एनएस@@
ither
इत्@@
अकसर
bride
बफर
solic@@
textile
bean
२००७
Jain@@
Pon@@
proviso
भ्रष्ट
Fax
आपात@@
fos@@
Register
बिछा@@
अवतरण
ण्डर
परदा
लीं
à¤@@
Chit@@
Rain
founder
fourteen
बहिर्@@
asaheb
नाट्य
मेटा@@
supersti@@
utilisation
cd@@
साहसिक
paste
alter@@
ount
साँस
ज़करिया
धारणाओं
expectations
सुनना
sanitation
apex
Bus
मनोवैज्ञानिक
पहुँचाया
Rul@@
mounted
घूम@@
wars
ृ
Youth
ashi@@
apparently
legally
ऑस्ट्रेलिया
shalt
mang@@
loving
ffed
ारा।
RSS
रम@@
agging
ashing
horizon
फैलाया
pursu@@
तुल्यकालन
kum@@
eves
Taj@@
unfair
विच@@
Acharya
खौ@@
pronounced
amendments
GroupWise
फिलीस्तीनी
trap
सियां
etics
Satyagraha
अहम@@
्रा
Package
embedded
ceased
चढ़ाव
predec@@
सोर्स
सांसद
physi@@
वाकि@@
uterus
Cent@@
ageous
adventure
plur@@
stub@@
निकल@@
manufacturers
क्यो
भट्ट
स्वायत्त
Setting
pap@@
शिष्टमंडल
codes
await
तुल्य
appointments
फेफड़ों
shop@@
असंगत
पोस्ट@@
pathetic
sic
डबल्@@
लशकर
Info
Sust@@
limitation
innovators
Surya
स्कूली
Ishmael
संभवतया
रोज़गार
सौहार्द
जुर्@@
Stock
कोरिया
उद्योग@@
Music
tracted
वाइस@@
aste
burned
धिकरण
बुत
उठकर
kha@@
conj@@
दरअसल
धमनी
1-4-@@
सुश्री
cau@@
elation
recru@@
leather
डेवल@@
godfearing
rence
à¤¨à¥à¤@@
scriptions
भावनात्मक
lap
झगड़ने
gare@@
1972
Id
cabinet
Hard@@
watch@@
Setup
ब्लॉ@@
लगाव
adh
आहरण
ज़रु@@
त्कार
amid
बाने
अत्यावश्यक
restraint
instituted
relevance
सकीय
Balance
दृश्यों
9th
tium
असमानता
Nan@@
repro@@
लियम
हवाले
12th
तून
Ananda
सूचनाएं
विनोद
soever
एकक
appell@@
यानों
iya
खुदाई
इन्टर@@
बादशा@@
निपु@@
पिका
compiler
tables
स्ट्री
power@@
static
twenty-@@
हस्तशिल्प
veter@@
वेल्@@
undergo
ध्याय
subtract
Wr@@
magnitude
विनियमों
9.0
खिल@@
tyr@@
stretched
unusual
नवजात
Big
Double
खेल@@
Zak@@
Ka
घूम
जबरदस्त
पांडु@@
गुस्से
प्राची@@
vid@@
खाद्यान्न
तरजीह
lik@@
Viewer
demonstrated
re-@@
indirectly
ऑयल
lovely
बैंक@@
strain
grassroots
भरो@@
itya
मौलाना
fici@@
प्रतिस्थापित
कर्स
nig@@
Inv@@
टीके
incl@@
authentic@@
Jun@@
prem@@
chec@@
IST
elec@@
अभियांत्रिकी
जगा@@
कारगुज़@@
finest
फ़र्@@
reform@@
औरंग@@
भं@@
कीमती
बांड
काश्@@
चौड़ी
prosec@@
पियन
schema
BIHARI
त्योहार
आलू
त्थान
पुरूषों
orph@@
Conver@@
श्वास
amma
iah
Goods
snakes
dients
gues
मोड़े
अंदाज
Gas
प्रवी@@
मच्छ@@
पौंड
न्व@@
brid@@
dividing
Burma
दोस्तों
NUMB@@
200@@
छवियाँ
आईडी@@
नवो@@
औ
PL
parag@@
MSMEs
आयो@@
grey
ipp@@
Accep@@
gest
fficiency
निचली
राष्ट्रवादी
रुपया
versi@@
ridicule
doc@@
Jewish
Win@@
फिट
wildlife
subtle
Electricity
erce
किर
क्सी
पटा@@
ingent
fabric@@
निवे@@
विश्वा@@
gins
शत्रुओं
jecting
एशि@@
दुर्भाग्य@@
विध
jum@@
आपात
eeding
पैक
auction
ज़ो
eyed
कार्यभार
जहाज़
necks
700
क़ुर@@
alam
अन्या@@
ज्ञानी
ksh@@
पुरातन
िता
ब्ब@@
IST@@
Ish@@
याचि@@
रिकार्@@
mas
तार्थ
honey
Ukra@@
संदिग्ध
आकारः
DM
Nas@@
ठहराव
adhy@@
कृष@@
revi@@
terior
PI
......
Saha
gum
फ्रां@@
tent
दीवान
रघु@@
Others
दीर्घा
Path@@
evol@@
Num@@
pleasing
आतंक
शासी
कराती
overwrite
आइस@@
छाल
fibre
entrepreneurship
चेहरों
MU@@
Ox@@
conscience
विवेकानंद
Atten@@
घन@@
Provinces
Democracy
feeds
fashion
पेशे
रवि
सास
अछू@@
ग्रता
Assamese
संघर्ष@@
Saraswati
वान@@
सपनों
ढा
prone
डर्स
प्रामाणिक
Proxy
अल्पसंख्यक
पैमान
rant
Sacred
ennial
delta
effec@@
करि@@
Ramalinga
à¤µà¤¿à¤@@
viewing
San
रामकृष्ण
poured
Iranian
स्पूल
प्रतिपूर्ति
स्त्र
bat
CH
कमजोरी
widespread
Content
प्रादेशिक
बनाम
दुकानों
turn@@
सुपर
Amar@@
उद्गम
लगाएँ
speaker
dece@@
हिच@@
फरमा@@
expressions
न्दा
सती
ima
irrespective
विकेट
dairy
गुणसूत्र
DPI
ंगः
भृंग
कुट
akar@@
स्ले@@
किक
operator
Pay@@
पक्षकारों
spirit@@
प्रौद्योगिकीय
टीपी
क्ली@@
sword
मठ
touching
del
vag@@
shoot
धृ@@
करवाया
Busy
ठेके@@
ध्द
क़ों
द्वितीयक
दने
compositions
अधिनिर्णय
काएँ
रसा@@
चलचित्र
भत्ते
मुक
ढूंढने
yal
उभार
फ़॰
filters
बन्धु
चौदह
अमा@@
tom
फिया
थित
realization
चंडीगढ़
टैंक
hunting
जोड़कर
ularly
Bezbaroa
बचना
Rak@@
यह@@
stein
मानद
Given
रियासतों
afghanistan
myster@@
depression
शांति@@
comparatively
wool
काव
न्यायमूर्ति
पारे@@
नसीब
rewards
नवान्वे@@
boost
कारे
dismissed
सतर्क
India-@@
thermal
embarr@@
निकाह
marking
proxim@@
Desh@@
system@@
Narm@@
aha
SION
follow@@
प्राक्@@
अज़सरतापा
print@@
उपद्रव
mentally
बजा
beg
isa
हकी@@
particulars
fore
उत्साह@@
फ्रांसीसी
डब्लू
Friday
कारखाने
inch
camels
मुद्दत
substantially
पोतन्ना
निकासी
आईपी
Resp@@
Autom@@
alert
mills
चुकौती
विनो@@
physically
issuing
औद्@@
विध@@
ख़ुशनूदी
TEN@@
द्यु@@
जोड
mort@@
Niz@@
bha
न्तु
कपड़ों
pione@@
condi@@
लड़ो
amble
रंगः
द्दीन
laun@@
nay
ब्रिज
computed
शख़्स
दोहरे
DF
Spain
हरण
छिद्र
civilisation
prolonged
Communication
shad@@
विषम
interpre@@
डूबो
स्थानिक
आरोग्य
शिरा@@
फैक्स
प्लै@@
patriotism
बैच
जायें।
Grant
upgradation
रिय@@
गुप्त@@
fif@@
yard
फरमा
टेलीविजन
occasionally
tongues
acharya
महो@@
बर्मा
नाशुक्री
Advisory
तनी
ोत्तर
कनेक्@@
शिश
resid@@
मुखिया
हक़@@
रुचि@@
areth
temper
अयोध्या
पत्ता
अजनबी
फुल्@@
bunch
hate
equipments
dor@@
ceiling
साझे@@
ng
भक्ति@@
you@@
Ms.
पित्त
बढ़ाते
आवधिक
1952
fig@@
परिहास
underground
MSN
Hospital
enmity
Tom@@
ढील
मातृभूमि
१४@@
dried
कच@@
शीत
thetic
spare
Sand@@
Dig@@
Domain
emon
अकादमिक
insula
Complete
महानिदेशक
pharmaceu@@
chasti@@
जमाअत
सहकारिता
गन्दगी
द्द@@
privileged
राममोहन
इंद्र@@
कैबिनेट
uates
illusion
राजीव
निवि@@
assimil@@
velocity
२००६
Registrar
सिडबी
आतिथ्य
सुधारक
पहचानने
Salih
supervision
भेदों
alien
philosop@@
proves
set@@
पथभ्र@@
sey
मंडी
.08@@
फाइलों
eps
33@@
compens@@
क़ौल
economically
gon@@
विद्रो@@
dhana
धुंध
फरा@@
Chat
ज़ाम
publications
oxide
cut@@
hospitals
कणों
खना
ज़िल्लत
व्याप@@
विरोधा@@
१७
cleared
highlight
rightful
नां@@
नमेंट
चिरा@@
प्प@@
गिंग
filename
olic
timately
slain
transgress
enary
raj
Rajendra
यात्रा@@
accorded
ark
भत्@@
नसारा
toil@@
qualifications
झुंड
छुआ
Math@@
डीए
विभागीय
fetch
Abu
स्तुति
phrase
नहा@@
बैल
ores
promising
stic
Mc@@
forehead
jewellery
Bottom
रसाय@@
करूंगा
शासन@@
ishad
import@@
Hyper@@
विजयी
Eden
चिकित्सा@@
dung
रखना।
truste@@
Sunday
iz
मुंशी
custody
lipse
1981
communicate
घण्@@
develops
Blessed
pow@@
कब्जे
पेन्@@
टती
व्यति@@
dose
à¤²
Dou@@
Goddess
wind@@
excuses
ज़िला
disd@@
जड़@@
औषधियों
tes@@
श्वा@@
burdens
Prayer
Reading
सोर्@@
devotional
sigh@@
Bhavabhuti
अध्यापन
renewable
termination
FROM
यात्राओं
कमे@@
१९६@@
मांगों
जन्य
pursuing
ब्रह्मा@@
sket@@
नियंत्र@@
chat@@
moder@@
7,@@
धौ@@
assembled
संकलित
Everything
18th
bell
Programmes
गिरफ्तारी
TA@@
हीं
Sent
amazing
त्यौहार
requisite
acquainted
त्सा@@
सम्मि@@
Ol@@
tele@@
founding
opinions
indicating
फ्ता
अस्पृश्य@@
Learning
भाई@@
टकराव
ficent
Lut
airport
enum@@
intensi@@
mass@@
convention
pro
Bug
सृजनात्मक
तकनी@@
andum
Gra@@
treach@@
adversity
Host
paras@@
दोहन
Multiple
रियायत
Meg@@
संवेदी
loos@@
खड़
trip
compiled
टु
Ekiga
तरस
remainder
centers
HR@@
मग@@
wire
संघों
देसी
Pix@@
lou@@
ph
शु
BJP
ताजों
सम्पादित
निभा
निहाल
aright
Fun@@
कमो@@
प्रयोगशालाओं
tiers
ओबामा
eighteen
MT
एंटर
UTs
नरेश
ग्रि@@
house@@
Scientific
Excise
liv@@
इब्@@
pack
Guard
विवे@@
ench
torate
क़ो
Balarama
वनस्प@@
grasp
पोशाक
धुरी
Upanishads
भौति@@
adjust@@
aks
interrup@@
नुत्@@
gas@@
तऋ
अमानतदार
`@@
publicity
Disk
बहिष्कार
enses
धाम
grievance
construc@@
Hot@@
बिगा@@
compelled
मक्के
victorious
topics
arre@@
साहिब
सकेगी।
mate
पठनीय
त्तम
क्षेप
Depos@@
var
rolling
govern@@
समयः
mys@@
क़ैद
रेडियो@@
super
doctrine
intest@@
surrendered
cook@@
२००५
मध्यस्थता
नर्मदाशंकर
sex@@
अख@@
डेयरी
Cour@@
साम्य@@
green@@
ऋष@@
Ho@@
पता@@
cons
मिसालें
रखनी
TB
तुल
vas@@
shoulders
ख़िला@@
threshold
Sank@@
विटी
nail
wedding
प्राधि@@
manufac@@
som@@
Vidyasagar
lay@@
कोल्हटकर
whilst
वेली
parameter
authenticate
पाठ्यक्रमों
Navy
leng@@
सूरी
हज़@@
अधिकांश@@
वैधता
काव्या@@
oom
puri
Subhash
ided
औंधे
सूचि@@
numerator
mother@@
anese
Hud
Ara@@
aceful
Finland
itter
च्छे@@
आड़
म्बे
hind@@
Notes
निकालते
नॉर्@@
poultry
ori
लम्बाई
electr@@
पाउ@@
stray
प्य
NGOs
लाइनों
मण्ड@@
similarly
उठना
Serial
Korean
anic
चंद्रमा
RSA
recruitment
ion@@
devised
Commission@@
महिमा
vegetable
RTI
Criminal
divorce
समेट
म्म@@
कुल्@@
mes@@
Son@@
अलै@@
निकलकर
अभिभाव@@
Agn@@
dozen
committing
LIC
Appointment
प्रतिवाद
Anniversary
layers
SCH@@
दिखाओ
हॅ@@
inda
संस्कृतियों
बेवकू@@
buc@@
Series
Blood
कोशिका@@
Wildlife
युग@@
ried
मोनो@@
दीकी
छड़ी
रेंस
Ayodhya
rebel
Phys@@
संभालने
नोबेल
फलन
imm@@
insu@@
restart
0th
heap
alter
दम@@
locking
ख़ौफ़
sni@@
neighbourhood
यंग
चौथी
जूते
smo@@
उत्ते@@
वज़न
र्ष@@
Meherally
dissolution
wary
Translation
strikes
readily
Hon
थॉ@@
छल
counting
influences
फ़ारसी
रेख@@
द्वेष
archit@@
पंचायतों
स्वेच्छा
1931
1938
सुसज्जित
proto@@
mem@@
दुसरे
कुला@@
समर्थ@@
infant
निकटता
Nic@@
F.
Ther@@
ग्यार@@
Sover@@
तर्कसंगत
गिड़गिड़ा@@
memorial
yoga
aders
क्रियाएं
press@@
maker
wand@@
खली@@
satan
महीना
म्बर@@
बहाने
nd@@
रोबोट
unexpected
cium
रिएक्टर
विश्वासघात
compressed
चांदी
होम@@
इसमाईल
अन
teries
चुना@@
berry
plant@@
accord
plates
1978
fruitful
providers
जोड़ते
mentality
denying
Universal
miserable
कार्टू@@
टुकड़ों
essly
Arabian
Panchayats
दुहरा@@
अतिरिक़्त
गुप्ता
arose
electro@@
announcement
multi-@@
fer
gery
viii
activated
कलम
pag@@
alled
considers
सूचनाएँ
defect
GL@@
warfare
कलाओं
nally
exalt
expelled
cars
आज़ाद
Broad@@
Shah@@
onwards
capacities
माई
matching
arrogance
दर्शाने
miti@@
Cash
Jordan
सरा
विधेयकों
निवार@@
istry
वहॉँ
स्वे@@
शिष्यों
यार@@
सुरे@@
tings
repaid
लब्@@
thum@@
लोकप्रियता
Role
supervis@@
reconstruction
बिगड़
Browse
तुलनात्मक
विहार
लॉर्ड
spinal
fan
09@@
दिखने
हुसैन
अंगूर
MD
द्रि@@
ट्रे
beware
condolences
ष्य@@
संकुचन
पाउंड
contradic@@
पुराणों
Naras@@
SpamAssassin
knowingly
जाएँ@@
adm@@
Increase
Outlook
नामा@@
निरस्त
Panc@@
escence
संभोग
distri@@
sorcery
मंत्रि@@
invo@@
explore
तैनात
sentiment
luminous
दर्पण
ued
Tran@@
AY@@
कमाने
sacrifices
नियोजक
Debug
सेवी
चेष्टा
Hindustani
अवहेलना
Tex@@
grieved
इंजीनियर
सती@@
Ved@@
launching
Charles
ordinarily
diplom@@
सीमाएं
scenes
य्य@@
uten@@
खर्चे
izer
prop@@
deliberately
अचल
MiB
बहादु@@
अकृतज्ञ
federal
postp@@
जड़ें
भाषणों
कमान
ऑक्@@
Following
scribe
16.html
लेजों
oppose
Ahmed
iter
Ganesh
uti
Birth
infin@@
स्थावर
Study
प्रतिरूप
intervals
हिन्दुस्तानी
sculpture
नजर@@
विधिवत
Completed
इक़रार
collectively
fai@@
St
पॉलि@@
असुरक्षित
Ek@@
घटाने
adh@@
अम्र
दर्शाते
समारोहों
researchers
भूतपूर्व
विद्यासागर
Salat
संबन्@@
नेपाली
petroleum
occupy
अनुकूलन
बिलों
accountability
medieval
आवे@@
दरवाजा
भरना
par
टेक्स
संसार@@
दांतों
सबने
संयंत्रों
fall@@
आक्षेप
शिष्ट@@
assment
Rotate
Nevertheless
तालों
न्याया@@
×
observations
इंजीनिय@@
हृदय@@
यौगिक
merchant
विकल्पः
Presidency
confirm
तांत्रिक
मूत्र@@
कांग्रेसी
roles
preser@@
Hear@@
महारा@@
announ@@
amer
hectares
आज़@@
तकर्ता
वर्धक
एकत्व
resent@@
leas@@
भर्@@
alty
नाटक@@
oke
ager
किराये
पड़ताल
पुरस्@@
पृथक्
Citiz@@
गन्ध
ग्ध
बना।
shipping
अनजान
elders
संकुचित
कारा
शुरुआती
रोगा@@
परिस्थितियां
prevents
lava
Partnership
पत्रकारिता
Sli@@
बूझे
ंचन
Armed
Receive
coordination
ishers
insisted
fearful
ख्यात
मापदंड
indicator
ksha
gres@@
Sap@@
प्रधान@@
दरा
climatic
dpi
गुफा@@
परिष@@
ulty
anded
सरक@@
बताती
heir
युव@@
loses
अंटार्@@
तिब्बत
मुरा@@
logy
bral
उठी
tragic
विघटन
डराए
erb@@
खौलते
पैग़ाम
format@@
आक्साइड
instal@@
food@@
fled
digit
समाज@@
टित
Joshi
कृषकों
प्रवृत्तियों
ज्ञानवान
prospects
क्तों
progeny
kti
सुनाते
ledger
lawyers
पंचाय@@
ारियाँ
Acqu@@
समावेशन
निर्वाच@@
tras
Beg@@
उद्भूत
टेल
नया@@
बहुदेववादियों
terrorists
दूक
tropical
नाट्य@@
acknowled@@
salvation
चखा
ष्
Ven@@
जरा@@
इंस्टीट्यूट
Agr@@
नेको@@
ख़ान
Panel
prey
सीवीएस
Anti@@
ular@@
disciple
Login
साझीदारों
ग्राफी
ename
cling
consult
वीकरण
NN@@
disrup@@
ware@@
Tata
exclusion
कार्यक्षेत्र
fashioned
स्तो@@
मोहक
occ@@
construct
UNI@@
°@@
mines
नाती
युक्@@
legend
नवाब
quer@@
चलाता
गाइड
Determin@@
penit@@
kas
achi
Funds
गिरी
container
vel@@
जम
Gok@@
Maharshi
वंशा@@
05@@
मोटर@@
occurring
सहनशील
स्वप्@@
लगना
Fixed
Prevention
मोह
elementary
जाएंगें
chemist
ख़राब
पाला
dious
tenants
Gall@@
knowled@@
रव
sunrise
नगरपालिका
multiplied
fullscreen
चाइ@@
फिरो
कीमतें
बैठें
sume
जमीनी
ऋणी
अज़ी@@
surv@@
हाथियों
polic@@
अफ़्री@@
tles
रेशमी
stat
aided
माजी
cosmic
संभाल
स्ला@@
reiter@@
sheets
धनुष
business@@
अक्ल@@
हाय
subsidiary
Fast
insured
लती@@
tag@@
oppressed
अनुरक्षण
Americans
विराट्
sen
बढ़ाता
उन्ही
quarrel@@
Border
पड
क़ार@@
इमार@@
demer@@
carriage
iland
चुनौतियां
aband@@
rejection
र्य@@
variation
स्थगन
सन्दर्भ
exhibition
पालिसी
अमिताभ
विनियामक

wick@@
facilitating
आज्ञा@@
rooted
अविश्वास
कराधान
कैन्@@
परिसंपत्ति
फ़िल्@@
काण्ड
manifestation
जिं@@
लौटते
लगेंगे
mati
1963
1945
shapes
Khadi
Indonesia
आईटी@@
touches
कंधे
ख्यक
Uttar@@
Memorial
Hop@@
SOCKS
कहावत
AA
usal
fodder
महासभा
praised
hya
udi
बरसों
कम्युनिस्ट
कार्यनीतिक
hint
साथ।
पाकिस्तानी
warranty
कुछेक
pulled
फ़री@@
preservation
Resolution
Friends
WH@@
Martin
डेंसी
reviewed
वेदी
अंधे
ताना@@
जल्@@
ॉप
Pow@@
à¤¿à¤¤
ंचे
YO@@
मार्टिन
pered
vap@@
न्ना
Tre@@
spic@@
यन्त्र
brightness
कुदरते
नकारी
मेव
Snow
काबुल
Simpl@@
encompasses
टकी
PRA@@
बागान
Sports
exemption
ारियों
program@@
wells
tol@@
लियो@@
mans
कानू@@
Congo
मुल@@
perceived
ulars
फरमाता
बरे
employers
Rab@@
Arbit@@
TRA@@
ogram
बहरहाल
लालच
आरेख
aesthetic
वान्
याददिहानी
rogen
ancement
zip
Standing
हल्@@
सुनाता
रिटी
sail

१९३@@
संख्याओं
लेखकः
कद@@
behave
द्रवि@@
चित्रा@@
Living
wrapped
Function
failing
AB
अनुरुप
See@@
disbelieving
ख़़ु@@
फटा
HAR@@
dinner
अनोखी
1921
इत्यादि।
Item
warming
Reality
collections
rak@@
sec
विवेचन
उत्तमकारों
plas@@
Auto@@
visional
उल्लेखित
लेगी।
pushed
छुट्@@
सित@@
राष्ट्रमंडल
एकाधिकार
displaying
प्रहार
Mailbox
गायक
lovers
decay
मस्तिष्@@
नाः
चालन
successive
intuitive
persistent
Spanish
chequ@@
dict
sophisticated
Jharkhand
Case
blazing
portions
संतृ@@
अधिरो@@
प्रकाशमान
accur@@
onous
टाई@@
नासा
alties
बुढ़ापे
किस्में
1935
लॉगइन
sustain
Users
iman
आश्रित
BS
chromosome
din
decisive
sations
lend
enni@@
junction
hang@@
ग्रीक
nag@@
दर्शिता
four@@
conserv@@
Hills
drinks
Nur@@
IF
neuro@@
metre
ingre@@
तत्त्वों
नदियां
resignation
बहके
kilometres
उत्तेजना
सर्वत्र
अभिलेखों
restric@@
zeal
मेघालय
पड़नेवाले
राजा@@
ष्म@@
रियासत
Hindustan
साइरिलिक
अपडेट
@@
Draft
प्रतिभू@@
Articles
adulter@@
praisal
UP@@
projected
ौर
pea
मापद@@
सामं@@
चुम्ब@@
निकटतम
otted
कस्टम
aib
Wherefore
à¤@@
ज़ू
झट@@
सांख्यिकीय
IIT
र्त
Inc
Exper@@
विधान@@
पश्च
extravag@@
स्थिति।
etters
बाध
ऊँट
अवस्था@@
गार्ड
Therein
सदाबहार
circles
tog@@
horticulture
note@@
अनेकानेक
CO
pronoun@@
Obama
चप@@
क्चर
bleeding
पहुँचना
laughed
यॉ@@
उड़
चार्ल्स
शहीद
inte@@
IE@@
सींग
matrix
pel@@
Regular
ero
विलक्षण
फिलि@@
माली
नतीजे
अब्बा
Images
washing
नेल
MAN@@
unemployment
destruc@@
ठहर
मिया@@
Six@@
gle@@
युवकों
afflu@@
dignitaries
चरा@@
FE@@
आभारी
eing
शकों
शिरा
सुनेंगे
Sto@@
concentrate
वृहत
Nagpur
बत्ती
ectable
§@@
iser
consumed
propaganda
मुख्@@
फ्ले@@
कोर्स
Printing
मणि
actu@@
partmental
यी।
यत्@@
रेडि@@
Desai
nis
hta
दूरभाष
दैवी
लिब
cale
bage
ग्रन्थि
activate
uda
मौसमी
electoral
Kabul
deteri@@
ंमें
लनी
जगम@@
sovereign
Bhakti
intend
तैय@@
जिये
;
देवि@@
Wisdom
हज़रत
शंका
1928
एमसी@@
उपवास
लूस
professor
cy
crimes
कोले@@
कॉपीराइट
दिग्@@
arely
debts
ब्यौ@@
अर्द्ध
ranking
मोहब्बत
नमूनों
Saying
Advoc@@
केन्द्री
पुष्ट
slight
ज्ज@@
compul@@
Phase
14.html
Taking
ynx
साध@@
Thr@@
निक्षेप
ष्टतम
tification
trekking
अदाल@@
कुष्ठ
बल्ले@@
lung
मुद्रास्फीति
होली
शमन
लगो
Ancient
पीठों
Grap@@
precau@@
कर्षण
awar@@
unbelief
किताबवालों
Aurangz@@
निःश@@
तलवार
चुनते
accumulated
chur@@
मध्या@@
लॉग@@
cared
Ignore
सडक
बर्ताव
बजा@@
प्रयत्नों
Actually
procession
दुर्बल
किसके
Fair
पकड़कर
ण्डों
urity
जनशक्ति
सिग्@@
ealing
@@
Pass@@
Head@@
सवालों
संकट@@
निस्पृह
दपूर्ण
इशारा
झान
TA
कीटनाशक
inherited
ove
disorders
borrow@@
वादन
लिपियों
ऑटो
udh@@
eighth
centi@@
दिरा
हिफा@@
परामर्श@@
disgu@@
फिक
hollow
तख़्@@
एला@@
नागपुर
wander
rehear@@
सिला
supporters
sacrific@@
सन्न
मॉनी@@
चिंग
Gabriel
ग़नी@@
og
arrives
हस्त
izard
painted
aggression
प्रेरणा@@
prompt
हिर
expend
kni@@
lifted
responded
वाए
शीघ्रता
kan
Han@@
isations
veda
पैरा
unhappy
ब्राह्मणों
क्षेञ
प्रजातियां
गद्@@
sage
प्रताप
Gand@@
priests
Speed
oked
frustrate
अनभि@@
validity
कापी
हुज़ूर
राशियों
गयीं।
aforetime
बुन@@
प्लेयर
मनी@@
श्ती
ख़ाना
berg
blindness
फ्री
महोदय
Farmers
लायी
Otherwise
ंगो@@
mandap@@
atically
admiration
advent
night@@
amen@@
करतू@@
repeatedly
dues
pho@@
ट्रो
bene@@
हे।
deth
निस्तान
मुं@@
worshi@@
ऑक्साइड
पौध
प्रतिपादन
Korea
थकान
predomin@@
Enter@@
foreign@@
NITs
गर्द@@
prisoner
discretion
Don@@
पमेंट
fertilizer
arding
link@@
त्यागपत्र
Request
ascetic
forts
किम
momentum
तुझसे
spouses
ogen@@
conspiracy
utri@@
attributed
मिकता
आंदोलनों
Bush
आक@@
ज्वा@@
floods
alphabet
कोष@@
नीतिक
Gadu
pu
investor
जाएंगी
स्नि@@
Kut@@
जंग@@
greeting
Customs
विस्फो@@
सुन्दरी
crafts
बापू
dra
lungs
दृष्टिगोचर
दाबाद
arrang@@
वेस्ट@@
सावधा@@
पुनरीक्षण
तः@@
athy
सेवानिवृत्ति
ट्रेन
fores@@
obiography
नहीं@@
Italy
रक्तचाप
गवाहों
frigh@@
हें@@
BR@@
ollen
periodic@@
आवेद@@
traced
मारकर
इसी@@
Kor@@
गोबर
uplo@@
t-@@
मरीज
sev@@
giveth
yi@@
tices
क्सिको
naked
bron@@
libraries
चित्त
गिरवी
बाला@@
apple
brush
gencies
approxim@@
Chil@@
Protector
tice
आर्थ@@
सवीं
रक्@@
समन्व@@
जिब्रा@@
साधारणतया
葉he
ँग
नशी@@
Communist
घुटने
पांडि@@
कोर्@@
सिमुलेशन
दिमा@@
श्वे@@
Func@@
बुक@@
axy
साज़
rescued
á@@
स्ख@@
MINIST@@
मियाद
Meghalaya
les@@
लह@@
beauti@@
Moh@@
prepar@@
Has@@
अस्त्र
माननेवाले
Purusha
ग़ल@@
spreads
expel
panc@@
क़ाम
atistical
अड़@@
tox@@
selecting
GR@@
denies
rations
violation
नोम
क्रीड़ा
emo@@
दगार
assumption
Design
परं@@
धँ@@
ग्राफि@@
मुझपर
aly
वेशन
wala
अल्पसं@@
शैल
पावन
DAV
तत्पर
इस्ला@@
दूंगा
चमकदार
harder
यूनिटों
पायों
anxiety
disciplinary
वरीयताएँ
giant
औजारपट्टी
ener
़्@@
Dha@@
genital
अनुपलब्ध
Menu
सुग@@
incorrect
Independent
प्रथ@@
चयनक
अनुज्ञ@@
ambar@@
मौद्रिक
chick@@
उल्लास
नकर्ता
test@@
धिकारों
सादे
डें@@
preneur
Thereupon
fertile
धातु@@
subsi@@
कंठ
contri@@
तेज@@
यूनुस
tensions
अल्फा
inaug@@
Whose
फाड़
नंदन
resist@@
एशन
पेशा@@
तुम्ही
किताब@@
फ्रेंस
ऋणात्मक
जवाहर
allo@@
burg
माइनस
cured
anium
चुअल
ध्र@@
आरटी@@
innumerable
जलीय
robust
स्वीडन
प्रक्षे@@
happ@@
assess
renowned
भक्तों
स्टिंग
राज्यसभा
Individ@@
करवाना
slog@@
minorities
in-@@
und
कैम
anus
Hind
घुसा@@
उभरते
gid
aying
awful
eor@@
Traditional
Ghose
derive
guar@@
isofs
verification
गतिशीलता
ves@@
abulary
तृत्व
पर्ण
sincerely
ताल@@
हंसी
Thak@@
Geor@@
masters
cough
pad@@
आवेग
Sac@@
परम्परा@@
demonstration
तथ@@
Room
dismis@@
Almost
toria
अकेली
बकरियों
ART
singer
extrem@@
नदियाँ
dued
imagined
concentrated
बसा
जौ@@
secretary
shout
चिन्तन
मानद@@
सबक
पुरा
mislead
अणु
Convert
अध्यादेश
निर्यातक
Bhat@@
Demand
eighty
animation
स्वीकार@@
मुहताज
Disp@@
instrum@@
सत्कार
tiful
matched
फिस
बेचैन
aran
hale
PE
deli@@
मुखा@@
distances
कच्ची
वरा
outgoing
tenure
novel@@
estimates
रोल
बेन
साज
उम्मी@@
सेज
गुनी
Chromium
स्वराज्य
जटिलता
श्वेत@@
races
ग़ल
Cave
interview
retreat
selfl@@
typically
suited
याकूब
protectors
preferences
commencing
रहीं।
decides
mar
मीठा
शन्स
परले
fee@@
भेद@@
reduces
डक
goat
कोल
Ramak@@
जील
फिनलैंड
tus@@
reciproc@@
BBC
bas
निगाहें
लयों
इजाजत
barriers
depart
सस्ती
उदासीनता
पूंछ
Telephone
admir@@
प्रसू@@
110
अनुभवी
hanging
पडता
stipul@@
sums
XX@@
तोष
Vall@@
पैकेट
Lower
ग्राफिक्स
एटीएम
बहाना
herein
loyalty
Sanctuary
बहुसं@@
अधिक@@
अमे@@
खींचने
दलित
feud@@
websites
uri@@
निस
Nov@@
THO@@
औपनिवेशिक
आरज़ू
Da@@
भाजपा
goo@@
ड्यूटी
Altern@@
जुड़@@
dispers@@
Dharma
Interface
सुस्पष्ट
ration@@
curriculum
Fel@@
फ़िर@@
abdomen
divinity
अनेकों
weigh
hypocr@@
exploited
sevent@@
COMM@@
सूची@@
gon
पर्दे
avan
primitive
withhold
refund
ख़ालिस
रंजन
sensation
contam@@
Naw@@
long-@@
Possible
एके@@
वाजि@@
rhythm
Mozilla
चिकित्सीय
blo@@
कैलि@@
व्या
broadcast
फ़ॉन्@@
पठित
ayya
आयोज@@
पंखों
Maulana
यहॉ
Safety
é
strang@@
environ@@
sar
भविष्य@@
काकर
assum@@
cad@@
cleaning
ISRO
speak@@
pitch
04@@
सामरिक
anci@@
पाबन्द
traits
Ari@@
0.5
नियमन
OL
Din@@
बद्@@
ज्वार
पाषाण
रहनेवाली
Mexico
अफ्री@@
cataly@@
दौड़ते
breathed
Ark
blood@@
खजू@@
रविवार
सावधि
पुरु@@
adornment
स्वास्थ्य@@
hoo@@
छानबीन
विश्वासों
introducing
trains
सिक्के
¸à¥à¤@@
just@@
अग्रसार@@
ग्ले@@
rety
याचना
resist
fluctu@@
lec@@
plea
नु
साम्राज्य@@
कैदी
उड़ने
reproduction
एनी@@
उपनिवेश@@
1955
Powerful
ught
मंद@@
lym@@
जवाबदेही
aversion
jeal@@
जियां
२४
hostility
आएं
Heavy
approaching
सेनापति
zation
जनसाधारण
Fet@@
ठी@@
premier
exceeded
Technolo@@
à¤¯à¤¾
Educational
bla@@
ब्राह्@@
चलाते
qualification
फेरे
कपटाचारी
बजाने
neum@@
उल्टी
उल्टे
सहने
styles
अहंकार
rik
well@@
मुझको
humbled
क्रिप्ट
intends
तलाक़
pling
शहद
सूक्ष्मदर्शी
सर्वांगीण
बेजबरुवा
shaken
accessibility
survi@@
elderly
Highway
Perf@@
स्त्रियां
cury
uv@@
Academ@@
voys
laugh@@
cherry
à¤¡à¤¼@@
edible
1929
invention
ficence
१९
प्रयोज@@
अक़@@
eshi
अश्लील
स्लाइ@@
cs
akh
घाती
१००
योचित
अन्धे
पूर्वानुमान
escaped
Jadunath
दिलाता
संके@@
Priyobroto
Sweden
lifetime
tackle
Auth@@
itch
जाऊँ
regulate
घटन
मोड़ा
कार्यपालक
इंटरनेशनल
mb@@
निजाम
अत्य@@
vein
publicly
हरें
recalled
भेड़ों
हैल्@@
मोक्ष
अनियमित
खड़ा@@
Scrip@@
भोपाल
bree@@
forum
shadows
tir@@
Mam@@
cup@@
माइक्रो
वाक़ि@@
Bon@@
illustrious
फुल@@
ट्रिक्स
खेलते
mastery
उदास
consec@@
gradual
pan
SIC
icant
Recur@@
handic@@
nomin@@
hoped
सोम
exceptional
क्टी@@
inviting
हारिक
GB
आंत्र
interrupted
घोड़ा
शुऐब
त्रता
ख़ैरात
कामगार
hang
annually
मकसद
ideology
discer@@
Punishment
विषाणु
pom@@
obs@@
नौजवान
successor
pupils
ग़लती
tally
essay
uel
दिख
नन्द
insti@@
Odisha
lywood
verb
कफ
Arjun
सिक्ख
anni@@
vector
tribut@@
preaching
युगल
इरादे
साम्प्रदायिक
compil@@
काजी
Electronic
pation
चिड़िया
tight
रखाव
Hav@@
कर्त्तव्य
रक्षित
loyal
graphic
Acts
जुर्माना
motive
दिता
economics
पुर्तगाली
प्रत्यक्षतः
worshipers
regre@@
assuming
leprosy
Much
xx@@
नैन
आकृष्ट
pulse
संकर
nineteenth
Lou@@
Dominion
माफी
बुराइयाँ
rh@@
भाषाएं
शर्म@@
तिल
bere@@
7th
Journal
उल्टा
एनई@@
नेका
Mecca
तोहमत
Provide
विद
clearing
पग@@
दायों
Sync
खानों
बैठो
heating
चमत्कारों
थीम
विकास@@
13.html
experimental
orbit
नाइट्रोजन
एक्सप्रेस
स्लाइड
fighters
मँ@@
शक़्ति
नापसन्द
कार्यसूची
सुं@@
पैमाना
पारा@@
gop@@
cook
deluded
regulated
मोद्@@
¶@@
humiliation
reactor
ओड़ि@@
उठती
दूरदर्शन
श्रृंख@@
Staff
फूँका
सुने@@
incumbent
र्मी
comply
विध्व@@
आवंटित
विकिपीडियाः@@
charitable
User@@
बकरी
Ny@@
perform@@
Pic@@
grandfather
रंज
Godwary
प्रक्रमण
beneficiaries
@@
krishna
आरोपों
Pause
एलि@@
.06@@
घसी@@
बछ@@
Supply
पीय
सोचकर
राहुल
metabol@@
वीणा
दाह
aters
sap@@
गोपनीयता
२६
announce
वस्था@@
ross
tags
देवेन्द्रनाथ
मानोगे
दीवार@@
गज
सीबी@@
¦@@
drives
लगाता
धियाँ
षण@@
सौंपे
stiff
वाशिंगटन
differently
विशि@@
consum@@
Debugger
Manik
absorption

stocks
”@@
Robert
arse
bad@@
ंने
डुबो
NA
तपुर
OI
undivided
ग्रन्@@
stressed
Arjuna
ulative
क्रमबद्ध
Certain
gus
Ra
implications
थोडा
phy@@
पवित्रता
निचला
week@@
specialized
ग्लो@@
teams
tomb
missible
requited
कविता@@
Majestic
बेज़ार
Reforms
ढ़ियों
banyan
spirits
घों@@
ologists
sel
डालेगा
नलिका
समझें
VICE
सूद
texture
juven@@
निबंध
वाराणसी
इब्रा@@
alternate
षंगी
chlor@@
परिवीक्षा@@
acking
oneself
ICQ
Dan@@
कुर्ता
categor@@
मिं@@
orange
ज़िना
द।
प्रतिबिंबित
हिक
शिकायतें
चैक
ASE@@
अंतःस्थापित
agony
Nation@@
idol@@
Judges
खोजना
सम्प्रदाय
JSA
स्ट्री@@
खौलता
एँः
itan@@
complain
ग़ाफिल
BI@@
Rash@@
.11.@@
सिखा
अभूतपूर्व
multitude
विवेकपूर्ण
गोदाम
insp@@
ईं@@
Christ
फज़ीलत
ढू@@
स्ट्रीट
Sahdev
Deal
मोद
1937
मंज़िले
De
नरेंद्र
ferences
HP
steadily
exist@@
challenging
वसव@@
सन्धि
god@@
remedi@@
NG
scripts
Narendra
कुश@@
सार्व@@
config
अष्ट@@
Incre@@
क्रु@@
स्म
izational
सर्दी
धारणा@@
सूरदास
रिपोर्टों
corrup@@
immunity
warrant
नबियों
Of@@
Church
independ@@
Federal
clan
ंगर@@
Groups
gos@@
मुसीब@@
उपलब्धियां
पादन
सुप्रीम
vals
ren
bum
फसलें
ष्ठा
झुठलानेवालों
corrupted
सहाय@@
च्यु@@
समान@@
मख़लूक़ात
आठ@@
अनवरत
ख़ते@@
onary
hea
fertil@@
Century
स्टार्ट
टरी@@
dominated
कहेगें
Inflammation
lows
ongoing
limit@@
Mac
resses
पाँ@@
Layout
Read@@
GT@@
टनी
wouldn
तें@@
पुत्रों
30th
Armen@@
प्रतिबन्ध
creator
मार्जिन
प्रथाओं
मंगल@@
णियाँ
veget@@
estic
certification
अड्डे
Synchron@@
खाए
Manag@@
monks
बाग@@
बग@@
क्रैश
Performance
डोल
कात
स्क्वा@@
अतिरि@@
Mahadevi
siveness
china
संवेदनशीलता
खेद
Ma
Van@@
postal
ईश्वरीय
anted
teach@@
Varanasi
Frank@@
formally
दुर्ग
Consequently
truth@@
डित
answ@@
Kann@@
W.
करोड़ों
दीपक
परिणत
dimension
सफल@@
andi
handicrafts
acquiring
मुख़ाले@@
logged
शेयरधारकों
टॉप
प्रतिस्थापन
पार्टियों
Areas
परित्याग
Scan@@
exhor@@
आरेख@@
कोडिंग
लामी
अक्षमता
intellec@@
क्रो
conducive
Cup
त्विक
ission
Fifth
सुप्रसिद्ध
pilgrims
loud
Suppl@@
compare
Kit@@
ब्रै@@
तानी
सम्मति
न्तरित
amend
Verses
Mechan@@
sors
टिक्स
Brazil
Team
Saheb
दून
अर्थों
freight
Statement
परमेश्वर
धक्का
Separ@@
aksha
Tatya
मुय@@
प्रतिमान
fair@@
मदर
Cursor
color@@
Recogn@@
rig@@
Boards
विश्वसनीयता
Arth@@
निर्धनता
पैदाइश
आपूर्ति@@
झुके
insult
Virtual
evolve
जादू@@
लक्ष्@@
रोजे
हिब्रू
रामा@@
विषय@@
एसिड
ril@@
पुन
अनौपचारिक
smallest
iratory
semen
खासतौर
theore@@
मुर्दे
ring@@
xation
mockery
फिलहाल
mould
attac@@
lor@@
iliary
परिणा@@
निभाने
snip@@
प्रतीकों
ंबर
संतुष्टि
attendance
कोरियाई
श्रेष्ठ@@
entities
Jan
मुर्गी
जहाजों
differ@@
एकाधिक
कैरियर
पक्षा@@
Mouse
revert
typing
केले
पश्चा@@
archy
worshippers
प्राणिक
सम्पादन
Alas
glimp@@
anal@@
.2012
allotment
Innov@@
भिक
धीमा
transgression
revenge
सिफ@@
folded
Eleph@@
अनुसंधान@@
तम्
creativity
गुर्दे
.05@@
mandate
retail
औसतन
Env@@
inculc@@
लेन@@
SEs
रियो
विवेका@@
प्रकटन
षड्यंत्र
काइ@@
भूरे
pity
tut@@
नास
सामान्यत
पक्षीय
enqu@@
Relations
थर
keepers
गाडू
conjecture
solemn
शुक्रवार
census
à¤¸à¥
Tom
betra@@
concessions
plead
pulses
Labor@@
बाह
routes
नित्य
बिल्ली
गाते
eval@@
provisi@@
wore
पलटना
indecency
earth@@
colour@@
proposition
Anti
buyer
ord
bub@@
थलग
cub@@
digits
टूटी
tribunal
…@@
अवधारित
शुमार
उठाये
sugarcane
कॉन
Pothana
बारा@@
Gods
पुत@@
जमी@@
stol@@
ॉल
नियामक
reproductive
दोगे
delayed
Grid
हाजिर
cane
identifying
kms
valleys
वाद्यों
edul@@
02.html
उपन्या@@
prejudice
DATED
Australian
yan@@
folio
inscribed
निराशा@@
tility
पारसी
तुल्यकालित
saith
ताल्@@
कंट्रोल
ffer@@
deleting
proteins
शने
sorts
संकेतन
वरन
isition
hushan
chal@@
अगु@@
एंपेथी
Haplogroup
ingness
tide
nucleus
pent@@
Veer@@
Baner@@
clusive
पेशे@@
न्वे@@
sk
FIT@@
Retrieving
Hist@@
काली@@
वरदान
वकी@@
कोष्ठ
आयतन
आलम
वेज
lak@@
rejoicing
कटिक
सहेजी
पत्रकार
लौहे
अनं@@
pile
opathy
excluded
adesh
कीजिए।
नर्सिंग
sympath@@
उन्नीसवीं
Nivedita
marv@@
provincial
atters
ket@@
पैं@@
डिबगर
club
समज्@@
ographical
जानो
आमने
ख़ून
csv
impetus
sphrase
बूँ@@
च्छिक
मंचों
simplicity
modifications
constituent
आजिज़
reverence
fabric
ML
reactions
नून
ॉँ
ड़ियाँ
सोल@@
renewed
जियम
Arti@@
lear@@
जेट
hik@@
बरदार
Extract
eum
रिवाजों
UNE@@
फॉर्मेट
गांठ
township
भद्र
16th
उनमे
feasi@@
passive
preach
35@@
काउ@@
पत्ती
Install@@
अपेक्षाओं
अने@@
assignment
वनी
Joze
partially
biotechnology
Swam@@
washed
concep@@
बेर
tracting
विनम्रता
श्रवण
defects
गायन
architec@@
priest
जन्मजात
फेफ@@
textiles
यूरेनियम
लंब
adays
बूढ़ा
iculture
cellular
horri@@
à¤
Cher@@
सस
FTP
रिवाज
रक@@
boards
culmin@@
discount
DT@@
spouse
quantum
काटकर
अमूर्त
चीं@@
हिजरत
रियन
कमज़ो@@
lens
वांछनीय
clicking
अज़ीज़
पिंड
lement
hia
बैठकें
incline
eh
कॉम
safeguard
ö@@
mani@@
benef@@
Care
Aviation
à¤à¤°@@
अवसाद
practise
altitude
सितारों
गृहीत
मर्यादा
कोलं@@
SO
मुल
1919
परदे
वामपंथी
aud
Princi@@
हाइड्रो@@
लुत्@@
मेरु@@
stoc@@
वेशी
ख़ी
planes
prints
Chair
Notification
strait@@
artisans
listbox
outlay
Think
congress
चाहूंगा।
recurring
कॉलम
moments
oppression
celebration
balances
deciding
07@@
prak@@
photograph
sizes
उपयोगकर्ताओं
harmon@@
Sir@@
न्स@@
explaining
releas@@
invisible
fix@@
complex@@
विमानन
yst@@
BCC
anat@@
chers
Bachchan
बनवाया
mask
reliance
किरा@@
ज़िंग
नाग
partic@@
प्रोसेसर
dread
पदोन्नति
परम्परागत
rival@@
MIN@@
हफ्@@
MCX
अन्यत्र
ograph
jack
प्रशस्त
Hast
सोते
remarks
उत्पा
Jon@@
likewise
combine
repri@@
Required
अपनाते
अंड@@
टीमीटर
Christianity
आलो@@
मुला@@
aba
internation@@
Purana
मौज़ू@@
हु
fabricate
व्यवहार्य
योगिक
barred
अग्नि@@
INAUGUR@@
सिगरेट
वधू
gang@@
excitement
benevol@@
weav@@
तौल
assemble
Town
‘भारत
दीक्षा
ires
Statistics
Aryan
nes@@
मंत्रिपरिषद
अनुलग्@@
२२
व्यभि@@
माँगते
Permission
पुंज
बेहिसाब
sho
निरपेक्षता
urch
Row
मूठ
1882
उलटी
IES
लार@@
Lal@@
तिकरण
प्रोद्@@
तकिया
दस्त
dislike
दिश
à¤¨à¤¹à¥à¤
replacement
hilly
ऊष्मा
ght
dangers
colored
सिलसिला
amaz@@
ming@@
स्तक
तंत्रि@@
शॉट
क्रोमियम
warmth
एमएस
proli@@
Letter
1908
हाला@@
citizenship
craw@@
Years
विनिधान
सिकं@@
Mathema@@
Aff@@
धारियों
medic@@
त्ती
Dev
enty
खरे
कॉम्@@
lamps
sery
परता
सफ़र
महासचिव
पक्के
surroundings
encouragement
Ve@@
visu@@
ingen@@
जिकल
Rammohun
vacc@@
Guidance
गुर्@@
restrained
flora
रवि@@
oka
examinations
fatal
IA
mystery
completing
अध्यापकों
stern
मानि@@
नक्शा
Half
यद
justly
जलने
Merge
राजशाही
jap@@
pires
Franc@@
अन्न
wastes
रियाद
शहर@@
लाश
संबधित
defici@@
uru
ताव
विमानों
नके
distur@@
ible
नौकर@@
हाइट
suffices
उसमे
jur@@
मालिकों
Guide
लाम॰
मने
baz@@
Syed
जाऊँगा
Focus
ड्रे@@
sugg@@
Plan@@
univers@@
bund@@
itr@@
à¤²à¤¿à¤
हाइड्रोजन
cell@@
utilized
उपेक्षित
Non@@
remit@@
impugned
teous
रेगा
esel
साद
ंतरण
बंधनों
ckets
urai
टाला
performs
alogue
jew@@
खनि@@
contributing
छिद्र@@
धर्मी
cid
Drag
तरफा
gently
मंडलीय
Guidelines
कठोरता
कंठ@@
सुचार@@
बताया।
journals
ब्यौरा
सर्जित
Christ@@
atro@@
अभिकरण
दिये।
jungle
सरे
Establ@@
Pack@@
लभ
nerships
youths
telecom
फेट
Phil@@
एनसी@@
प्रतिभाशाली
crying
delivering
hos@@
स्ट्रो@@
1936
सूती
करणः
amental
shopping
Jour@@
दिलाना
लौकिक
प्रतियां
वृत्ताकार
भाप
दुर्भाग्यवश
112
काटना
कभार
shower
Bounty
Emergency
peac@@
सुनाया
प्रायद्वीप
Settlement
उदारता
SH
END@@
conce@@
icals
Amit@@
VPN
Congres@@
अज़@@
inath
ब्रु@@
zy@@
wonders
फायर
reconc@@
कायदा
Proclaim
racial
adium
inder
शुक्र@@
think@@
सिपाही
averted
लंका
evaluate
humiliated
शर्करा
सूर्य@@
Remembrance
upa
इर्द
Frequ@@
हता
फ़रिश्ता
allowances
immer@@
neur@@
पहुंचना
ख्वाब
तलि@@
lau@@
Destination
rain@@
तंग@@
jam@@
कप्तान
attende@@
perv@@
चक@@
सॉल्वै@@
परांत
habitation
iCalendar
कमियों
inception
Alpha
रपट
कार्यनीति
1967
portal
nails
musli@@
Puranas
थ्र@@
enthusi@@
unprecedented
ग्रीन@@
diarr@@
ouldst
खजाने
Simulation
अंडा@@
फ़ोल्डरों
ंडी@@
फैक्टरी
महज़
chiev@@
Recently
ताकीद
Sou@@
organizing
श्म
reti@@
Teachers
GA
लाया।
caravan
Visit
Bhagw@@
bark
anguish
कता।
Sessions
IIS@@
शेयर@@
rin@@
अवसा@@
usbar
आखि@@
वॉल्यूम
थैली
ciph@@
पर्यवे@@
hana
Gent@@
hoea
फ़िल्टर@@
cer
मांगी
controller
iniqu@@
दुका@@
iers
disappear
दस@@
स्कीमा
ogene@@
तुली
मेन्ट
लाज़िम
ance@@
kl@@
लाफ
transgres@@
उगाई
tarried
1920
टॉम
8,@@
बाव@@
altered
Ras@@
Match
CF@@
competence
आइन्@@
स्कों
कराया।
chooses
Gaz@@
undertakings
नक्षत्र
इद्@@
प्रच@@
politicians
amoun@@
esha
जेक्शन
अवस्थिति
quarrel
स्टेज
opha@@
Mohammad
फें@@
उठा।
harvesting
Strong
concealed
hra
wn
प्ररूप
optimis@@
पहुँचाए
Budd@@
पतला
thine
essions
डेलिगेट
inage
elabor@@
accidents
erness
precisely
1969
मेज़
ऑं@@
बाली
à¤®à¤¾à¤@@
icker
रिम
मानें
Shri@@
findings
विनम्र
Antarctica
nutrients
exhausted
ponder
Jas@@
Ashram
परंपरा@@
प्रदर्श@@
इजराइल
yas@@
Bak@@
dancing
कार्यप्रणाली
सक्रि@@
desper@@
संज्ञा
जाऊ
intermedi@@
असीमित
Dhan@@
फॉर्@@
uals
merits
sixteen
वाक्@@
न्यूयॉर्क
सिद्व
नोट्स
agged
ूल
biology
सब्जी
जीवि@@
eloqu@@
बीते
यपूर्ण
coal@@
एफ़
हिस्@@
शेयर्स
Egyptian
एंगे।
चाहने
बुलाता
अंतरफलक
vagina
प्रतिस्पर्धी
oul
अँधेरों
solitary
incub@@
हारि@@
रिसर्च
trumpet
तव्य
MER@@
पितृ@@
du
बूढ़ी
निता@@
palaces
Emer@@
ब्रेक
embrace
कैन@@
Above
arid
लियाई
Feed
Shared
monkey
स्पष्टता
करणीय
साम्यवादी
ddesses
invoked
itability
प्त@@
सितारे
17th
competi@@
एकाएक
ephal@@
train@@
स्रो@@
भूले
1954
मीकि
utili@@
¶à¤¨
मोहित
comr@@
शिकारी
repairs
dances
Gulf
abar
Electr@@
फ़ाइलनाम
समझौतों
पंजी
उत्सा@@
र्व
बालू
स्थानः
odical
inadequate
enders
Conflic@@
प्रकरण
आत्मा@@
चमत्@@
यहा
knees
निधियां
गद्दी
पहुंची
patriotic
sentences
पेट्रो@@
अस्प@@
Bis@@
singh
crushed
अथक
suicide
eats
प्रांतीय
सर्वोपरि
विज्ञ@@
हालिया
oved
कोल@@
Moving
campa@@
0.1
apps
LY
jid
चालें
सिक्का
Sender
थू@@
अकाल
देशा
यूनिवर्सिटी
Mid@@
कश्मी@@
क्रमादेश
ंति@@
GN@@
कट्टर
backed
scri@@
sometime
दूँगा।
Headers
मेजर
कर्ष
threats
द्धार
posting
Lib@@
Picture
उत्पादकों
clearance
preventing
गोविंद
मंज़ूर
कंजू@@
world@@
INDIAN
tended
Unexpected
prostrating
गोश्त
Questions
1983
Vaishnav@@
सैयद
पुनर्निर्माण
ectors
py
गोदा@@
wicket
ascribed
£@@
command@@
calendars
iliation
निरर्थक
निं@@
Four@@
कोष्ठक
olean
rist@@
वेस्ट
DR@@
खाती
Time@@
drop@@
सूर्@@
देखिये
Ger@@
२३
trustworthy
alas
enings
imposing
कार्यो
furniture
à¤¾à¤à¤@@
turnover
attaining
कैम@@
मलामत
Bhopal
umber
kle
ods
वृद्धावस्था
सौदों
जीभ
गुट@@
लिपिक
कटा@@
उपयो@@
repres@@
सिद्ध@@
cruci@@
किये।
यूशन
eliminate
वसा@@
Vir
labels
सस्ता
डु
Secon@@
सम्बंधित
मरते
spices
affili@@
करोड
ईधन
PO
HPCL
ुण
inged
शल्@@
लेशन
Associ@@
trigger
ें@@
दिनी
सवाई
प्रवृति
यांत्रिकी
tanks
गहरा@@
¯@@
न्मुख
Spr@@
invent@@
agr@@
जिह्@@
खिलौ@@
दृष्टा@@
पहुँचता
quota
रिश्ता
ROW
जलन
pump
विश्वभर
शास्त्र@@
leaf@@
ridic@@
प्रतिपादित
gest@@
excited
आपरेशन
देयता
वृक्क
fauna
Ghana
कुटु@@
तरे
पढ़ता
2.0
pm
ru
प्राथमिक@@
मिठ@@
ection@@
नागालैंड
Quick
उद्ध@@
छुपी
बनाए।
hierarchy
Neuro@@
कार्बो@@
diagnosis
enta
ninety
offerings
arrows
Map
inspiring
Express
आयोजना
UB@@
icked
हथकरघा
goats
चश्में
132
जीवियों
उदयपुर
uttered
:0
प्रवर्@@
नवीकरणीय
राजपूत
Cath@@
lucky
ILITY
tough
vism
सम्मेलनों
electri@@
Jobseeker
Usage
Connect
डीसी
gitis
SQ@@
Storage
trader
heirs
Suddenly
Jerusalem
bis
वायुसेना
इस्ती@@
दारियों
IO
स्तंभ@@
distinctive
भाल
इन्साफ
ऊं@@
brotherhood
Serv@@
साउ@@
मरू@@
bureau@@
डिक्री
Jail
भटके
ectomy
SAR@@
PIN
बर्बाद
Elec@@
आतंकवादियों
agon
Bho@@
धिकृत
शंकु
intermediate
Obey
सावर@@
बहने
रखेंगे
ज़रिये
रीढ़
icon@@
तस्वी@@
रूसवा
chapters
छोड़ी
दार्@@
अतिक्रमण
नियमि@@
सियानी
Dynam@@
gha
जोधपुर
मेय
एआर
मसल
पूल
paint
वायुमंडल
हरी@@
procurement
1982
इज़@@
embodied
resc@@
साक्ष@@
निक्षे@@
dissolved
securing
लोन
Seven
memories
काटे
eman
छेदन
बङ@@
समन्दर
guaran@@
tivities
Englishman
banana
छात्रवृत्ति
esman
राजकुमारी
गानों
माँगने
merchandise
स्वतन्त्रता
manually
रेटिंग
निरूपण
gil
वाक़@@
क्षतिग्रस्त
सुई
पद्म
thropol@@
unite
वियों
वाहिनी
diff
ATM
borrow
powered
hiding
shameful
crystal
Moscow
.04@@
अवमानना
लयन
stabil@@
Manufac@@
विकासात्मक
असे@@
Accept
originates
पच्चीस
अन्वे@@
conquest
Currency
Ca@@
दीजिए।
hay
जहॉन
कठिनाइयां
डाउन@@
रिटर्न
जड़ों
Inspec@@
ट्रिब्यूनल
Championships
विराज@@
जूज
sper@@
कली
मसख़रापन
शकुन
दबाने
बेमेल
तेल@@
आपमें
PUR@@
biography
Environmental
इम्तिहान
द्रव्य@@
Charter
tower
ंचल
Laugh@@
IFCI
ज़ाए
प्रमाणों
Author@@
Reck@@
twin
पार्टी@@
Mes@@
प्रभारित
सना@@
गुवाहाटी
वक़्त
numb@@
कपट
polity
बारं@@
PRI@@
ऐं
कंपो@@
कलित
oman
पूँ@@
त्रुटियों
Poll@@
दौड़ा@@
assist@@
दूता@@
निर्मल
जमने
overtake
मौजू@@
ुदा
martyr@@
च्छि@@
authentic
सेवानिवृत्त
Lic@@
Water@@
आंत
ampl@@
स्फु@@
दिल्@@
कार्यकारिणी
rator
शुभारंभ
event@@
pand@@
elect
एः
roughly
निरु@@
conclud@@
आलोचक
सरकार@@
स्फो@@
डीआई
kilograms
rainy
मेन्@@
मख़लू@@
Gopal
कुत्ता
spur@@
approve
मुब्तिला
enclosed
rog@@
sanctum
Preparing
INGS
पछता@@
शिवाजी
therap@@
newer
Jud@@
झुकी
AGE
lowly
BHA@@
रेज
रिये
EN
Grow@@
ध्यान@@
scripture
वित्त@@
devour
ख्ते@@
not@@
कीर्तन
endeav@@
intoler@@
संपाद@@
NI
contro@@
उत्तराधिकार
टेंगे
Austri@@
thirst
घटाकर
Break@@
madness
पुण्य
अनुदेशों
ष्टिक
ग्न
metaph@@
Nuclear
Jabber
निर्दे@@
aggre@@
अग्@@
presenting
जानेवाला
climb
ब्राउज़
इमारतों
बाकू
pore
सेंट्रल
गुमरा@@
स्वतन्त्र
सागर@@
डेढ़
dental
Guinea
Pip@@
notion
ec
inevitably
सूट
Zalimun
UNIC@@
Bharatiya
Hari
नाशक
कपटा@@
फायर@@
Cz@@
discharged
injuries
सूर्या@@
निगाहों
आउटलुक
रियाई
प्रतिभागियों
admonished
Trumpet
sep@@
ंकण
निभाता
Securities
ज्ञों
अवधारण
accuracy
उत्तराखंड
Sinha
theories
जनमत
आइटम
à¤¨à¥
अठारह
hinder
Sahitya
भन
उड़ाते
कटक
cali@@
opard
campus
restaur@@
पूछेगा
blos@@
Fam@@
felic@@
hamm@@
वने@@
sweet@@
pleaded
Discard
भागा
virtually
महानता
परिस्थि@@
शती
chastise
Esti@@
landscape
Mel@@
dedicate
carto@@
मेहमान
Pho@@
phases
ral
राज्यपालों
recei@@
जंतु
Ki
लल@@
गुज़ार
Fat@@
विलेख
शक्तिमान
slew
Backup
उचक
राक
इश्@@
utting
regar@@
Layer
००@@
बायें
insolent
गण्य
लौटे
threads
IITs
अस्थिर
फरीक़
अपहरण
dressed
न्यूयार्क
Nay@@
उट
योजी
respondents
अलिफ़
episode
बीबीसी
बलि@@
bo
Mark@@
सुने
पुर्तगा@@
defines
dissemination
Tiger
खाण्डेकर
फिरता
बूल
soldier
थाई
राष्ट्रवाद
rum
जन्नत@@
tenment
uddin
पड़ा@@
हुईं
resh@@
डेक
खयाल
Rajput
EMAIL
मग़फिरत
स्फू@@
तकब्बुर
satis@@
पुनर्नामकरण
ग्रही
laughter
diplomatic
क्रांति@@
अवयवों
cand@@
पुकारने
adata
otting
यहॉँ
graphical
बुरा@@
funded
Employees
प्रभारी
शाखा@@
ह्र@@
Schol@@
गरि@@
manag@@
क्रूर
न्त्रिक
शिकाय@@
Cultural
exploration
complet@@
पुत्र@@
फेड@@
federation
अनै@@
संगोष्ठ@@
बुन
Gaut@@
इंस्टॉ@@
नीः
नर्स
tees
उतरने
ITY
डीन
utra
Tibet
kel@@
ज़िम्@@
संश्लेषण
मति
खेला
Mall@@
रेख
अशुभ
नामए
à¤¨à¤¾à¤@@
इत्मेनान
विंडोज
मुन्तज़िर
मांड@@
organising
बाईं
जीनों
फर्ज
ARC
खें
Facebook
रूपान्तर
certified
whereby
usable
आकडा
मुलायम
सुशासन
वाद।
बादी
Patt@@
ms@@
माउंट
basket
Ow@@
ख्यान
Councils
foolish
dou@@
गुस्सा
Crown
lump
critic
allegations
Dupl@@
कहलाती
perpetual
देखेगा
bler
road@@
transpor@@
Ral@@
promp@@
URE
देशभक्ति
बंगलौर
प्रौद्योगि@@
125
commerci@@
gov.
दाहिनी
संख्याः
प्रतिनिधि@@
limate
Kish@@
Upper
कारियाँ
नाभिकीय
मुद्@@
जोज़े
आरोहण
trek@@
उलझन
philosopher
à¤à¤¾à¤@@
renunciation
उदारीकरण
scourge
Ten@@
scape
pale
रवैया
सामान्@@
बैठता
deliberate
realm
संगठ@@
exercises
म्बा@@
idal
आगम
comparable
Daily
exhaus@@
9,@@
Kot@@
समयावधि
गुरबख्श
समुद्रों
ंत्र
प्रस्तावना
Poet
stituting
विक्रे@@
DM@@
रिए
Corpor@@
परीक्षा@@
14th
Students
इर@@
वस
Omitted
हवां
viewer
receiver
discus@@
Ubuntu
reputed
migh@@
प्रौद्@@
धागे
andra
आदिम
देते।
cups
brac@@
dao
एंट
pion@@
computation
फ्लैग्स
atitis
5/@@
ity@@
LD
वाला।
एनि@@
ंडो@@
craft@@
यः
विशेषताएँ
deserves
icus
स्वंय
तस्वीरें
मसल@@
CategoryName
VISI@@
Anundoram
Portal
constitutes
भूषा
ग़ायब
credentials
हाली
landed
socially
शीशे
आत्मनिर्भर
radio@@
Khar@@
feder@@
sedi@@
मूत्रा@@
tear
nurse
ंगिक
otype
alliance
Mos@@
Consid@@
व्यक़्@@
यूनाइटेड
ycle
phethood
दारा
मातृ
लोहा
confer@@
insist@@
calam@@
Afghan
बनाना।
Diff
पाते।
क्षों
Jer@@
उच्चा@@
न्या
typ@@
सैद्धांतिक
प्रणालियां
bodily
मॉनि@@
trials
preached
मुट्ठी
ओं@@
them@@
ferv@@
potato
घृ@@
2x
क़्ति
synthesis
बेहूदा
upro@@
mally
बहुदेववादी
misled
मजा
pollutants
assess@@
emission
accompan@@
divid@@
फ्रै@@
BEGIN
चारिक
Store
पाट
ऑब्जेक्ट
Siyaramshar@@
पहलें
à¤¨à¤¾
द्वै@@
दसवीं
उत्पाद@@
माइकल
आक्रामक
1934
कमांड@@
Sn@@
Boston
Qatar
घना
UP
सूँ@@
एचपीसीएल
jer@@
Anand
Assuredly
declar@@
tang@@
Rajiv
तग@@
qun
rushed
traditionally
प्रयाग
rot
AK@@
Blank
मिर्च
Taur@@
मक़्@@
थियो@@
specimens
पराज@@
petty
sheer
Messi@@
Shift
आठवीं
ललित
Dutch
दक्षिण@@
ङ्ग
छुआ@@
Fund@@
Duty
deligh@@
वाई@@
ombia
menstr@@
depths
kh
TAB@@
धन्य@@
म्भ
बिखरे
imitation
सभ्यता@@
interactive
damages
Jin@@
handsome
Dakota
विभाजक
PS@@
साव@@
album
territorial
trick
परायणता
Animal
पीड़न
plots
punc@@
Vit@@
mat
Gibraltar
डियो
math
tributes
पल्ली
fasting
gary
Links
दिशानिर्देश
unexpectedly
awak@@
arith@@
ords
IV@@
प्रां@@
scrat@@
वर्तनीय
नैगम
जमाव
Prot@@
एकि@@
obstacles
zak@@
Polic@@
to-@@
बेतरतीब
उपनिवेश
beam
icable
commandment
Archit@@
भाग्य@@
relieved
hid
ृह
denti@@
पकड़@@
नस@@
ढां@@
जहॉँ
fors@@
विभिन्न@@
मेज@@
sabha
मजाक
गंज
guy
wealthy
अंशों
pact
असहाय
poin@@
ऑक्सीजन
कथानक
Whereas
तितली
sights
rol
चट्टा@@
प्रशंसक
iner@@
मॉरि@@
ओएस
interpreted
succour
Sur
युवती
diagram
प्रकारः
वोट
अग्र
बटण
Pakistani
Step
अनदेखी
allocated
क्षितिज
मीटिंग
मैनुअल
seldom
खोर
पागल@@
1.4.1
123
परिचर्चा
माय@@
रतों
हारे
दुनिया@@
कार्बनिक
pg
रेटर
संगठनात्मक
होशि@@
Round
छात्र@@
Secret@@
holes
Anglo
legends
Overwrite
Soc@@
मिल्@@
zamind@@
1979
Electri@@
Schools
edit@@
isms
biom@@
beha@@
Conservation
tiles
conferences
danc@@
1964
Aad
लेना।
unfortunately
aris@@
optical
eda
reless
खामो@@
टिल
प्रश@@
श्रद्धा@@
कमाते
oro@@
Aye
निशाना
neighbour
KChar@@
considerations
हाँ@@
sta
लोम@@
converting
attending
roid
entially
Kama
remuneration
surprising
तिया
MD5
द्वीपीय
नाराज
सीआर@@
स्त्रो@@
रिज़@@
शाखाएं
tist
परिलक्षित
साहे@@
वृत्तियां
municipal
त्तापूर्ण
icop@@
monopoly
gol@@
tooth@@
स्टार्टअप
लाए।
larva
quet
Ide@@
maritime
spheres
सस्ते
हा।
उपयोग@@
पक्षकार
borrowed
फ़ाइलः
जटिल@@
व्यता
unavailable
अशुद्ध
तुलसी
आशीर्वाद
चमकता
intuition
tasted
पहे@@
पाठ्य@@
Kisan
अधिवक्ता
सार्वभौम
ICUL@@
tiliz@@
बहाव
Lam@@
जायगा।
प्रोसेसिंग
practic@@
माइक्रोसॉफ्ट
epilep@@
gical
ष्कृत
Praiseworthy
ल्यू
इंडिंग
habitations
glucose
बारीक
पीठासीन
Binding
पीजी
lodging
fishing
bution
बरसा
aten
Plat@@
बेरोजगारी
infe@@
‘‘भारत
असफ़@@
digestion
INT
कवच
कवक
jag@@
बुर@@
grip
मुख़ा@@
sile
linga
phar@@
बोध@@
ज।
wireless
जते
Month
डस
util@@
vedic
deceived
पट्टा
vom@@
आज़मा@@
बूझकर
idav@@
मद्य@@
hoods
Giver
मीयादी
कलि@@
व्यस्त@@
à¤®à¤¿à¤@@
Taliban
disciplines
rap
मजू@@
motions
etal
बीएस@@
कुसु@@
ऑप्टिकल
चाही
ज्जत
क्षण@@
बैठना
generator
प्तता
Tibet@@
effected
plotted
SM
Voc@@
Deep@@
nominal
फ़िल
Diwali
Grand
debugging
ka@@
warners
उत्तीर्ण
Qa@@
saff@@
possesses
मुताबिक़
requite
युवा@@
Whoso
ंगत
uma
canvas
प्रकोष्ठ
वृंदावन
elevated
मुक़ाबला
itrus
संचय
icle
eu
पेशाब
सूझ
documentation
descriptions
Surat
प्रभावकारी
Purchase
नगर@@
कालावधि
रिच@@
हिनी
फरी@@
उपयोक्तानाम
transgressed
dirty
मितीय
ogas
chairman
मुवा@@
४०
chaste
owl
वाया
wrought
competitiveness
alleg@@
एसी
क्षिप्त
लड़ा@@
परलोक
क्षात्मक
सियारामश@@
nerves
isers
संरेखण
वाट
1958
चश्मा
Ros@@
आईएस@@
ज़िया
recover@@
सचेतन
Khandekar
युनि@@
Firaun
imbi@@
Cub@@
tuberculosis
acids
socio-economic
जज
२१
असंतोष
appealed
संस्थापना
टैम्@@
hibitions
Assessment
summoned
परिजनों
Drop
सराहनीय
भत
groom
फिलीस्तीन
bowl
पाउडर
बहुआयामी
th-@@
downloaded
Ghaz@@
1932
argu@@
phe@@
splendour
ont@@
महिमावान
आलीशान
mart
harsh
कन्नड़
कनेक्टेड
रियर
रहन
लूकोज
patches
पच@@
materi@@
दबे
बिस्@@
कटिका
ific@@
भावना@@
theses
initiate
ball@@
हरिश्चन्द्र
NS
मातृभाषा
निकलें
enco@@
सोशल
Celebrations
अप्रति@@
text@@
exciting
Align@@
पंक्तिबद्ध
Subhash@@
गोला
Job@@
arithmetic
नपी
fem@@
हँसते
ooth@@
आदर@@
सपाट
ंगता
departed
Argent@@
प्रै@@
जेशन
धब्बे
मकबरा
Decision
लॅ@@
sus
cab@@
impatient
itly
क़ाबिल
काना@@
क्रिप्शन
comfor@@
skies
nish
Certification
Leader
नवान्वेषकों
वीरता
opy
विकलांगता
accountable
गांव@@
उदाहरणों
obligatory
इड
heter@@
Engine@@
bring@@
प्रस्थ
consist@@
conquered
priorities
कलक@@
बांटा
पेन
Categories
2.5
Mum@@
लॉ
Establishment
avi
आईएस
छठे
hereby
Uzbe@@
Include
enzy@@
dimensional
aim@@
पश्चात्@@
दूसर@@
लव@@
हिंदुस्तानी
मज़ाक
सहेजे
अराज@@
ensures
नमी
लक्@@
कदा@@
बाय@@
पैथी
Radha
anes@@
eded
सर्वे@@
patron
गोलाकार
specialist
गुज़रते
ख़्या@@
knee
रुकावट
लड़े
stairs
तिम
Construc@@
stake
bankno@@
similitude
lender
commendable
विवरणों
Compon@@
Appeals
moisture
DD
Rupe@@
disappointed
memos
El
प्राप्तकर्ताओं
virtues
हारा@@
unction
Product
YouTube
archae@@
indispensable
यादृच्छिक
शांतिनिकेतन
मुलाक़ात
Companions
मियां
Care@@
nak@@
नट@@
मस्ती
कोष्ठ@@
सरि@@
गने
superiority
वंत
कॉर@@
Names
robot
Ksh@@
readth
तरीक़ा
रहनेवाला
एसएस
बुजुर्@@
स्क्रीन@@
phosph@@
delegates
बनायीं
पुरस्कारों
Fak@@
पारिस्थितिकी
बचो
षऋ
WA
यदा
बायोगैस
हाथ@@
डेन@@
ज़ै@@
प्राव@@
Kas@@
लपेट
मुक्त@@
उभ@@
गंधर्व
विषयः
merge
नारा
db
veiled
मुम@@
प्रवर्तक
ept@@
चतुर्थ
सख़्त
मन्त्र
absorb

जली
Vedanta
Nobody
कम्पनियों
Period
ington
persuade
थिक
entic@@
बहुतेरी
adder
ठंडे
रंजक
गेंदबाज
lowed
चुनौ@@
06@@
मिलें
Cas@@
dispens@@
संगतता
उदात्त
लपुर
crad@@
ADDRE@@
फ़रवरी
डेवलपर
मोती@@
max
Vigyan
गुलाबी
extensions
सिक्कों
complexity
बिल@@
chances
feedback
ditionally
रूख
आपे@@
dome
cosine
meals
Gtk@@
Ath@@
enact@@
विधियां
devise
CTION
exemplary
DO
अभिलेख@@
नना
करण।
FS
ष्ठा@@
hibited
planets
निम्नानुसार
संबोधन
रज
मुस्त@@
जांच@@
seud@@
Applications
inward
Arts
श्रम@@
ईर्ष्या
सप्ता@@
HER@@
crown
gases
बदतर
Harijan
wasted
ज़र्रा
गेशन

s-@@
Repos@@
Recru@@
धनात्मक
एस्@@
Palace
सम्य@@
Usually
managers
सामर्थ्य@@
जाएगें
वृद्ध@@
यंत्रों
append
उत्साहित
Guarantee
interim
समन्वयन
शियल
PRE@@
crooked
Entrepreneur@@
जमें
syl@@
embryo
पर्वतमाला
वंशज
developers
कात्मक
सिटी@@
formats
RRBs
मक्कारी
राइट
कुटुंब
सातवीं
बोनस
italyprovince
deficit
फ्रेंच
tifying
ights
guaranteed
@@
examining
फॉन्ट
encompassed
इस्ते@@
ट्रेडिंग
tus
परिणति
Course
Comman@@
LAN@@
नुक@@
princes
सिल्@@
umbrel@@
fraud@@
संगमर्मर
पड़ेगी।
Inter
Ethiop@@
संभाव्यता
infectious
qi
मोहताज
cav@@
असहमति
दाँत
Milk
cryst@@
मानसिकता
eria
TT@@
align@@
संधान
Accessible
common@@
avail@@
nin@@
Intelligence
नकली
उभरती
distribut@@
बरें
शालाएं
प्रत्याशित
awakening
दुश@@
insectic@@
नफा
vague
adjust
कम्यू@@
contended
volunteers
Gaj@@
repay
lib
चिह्नों
मिका
offset
warm@@
प्रव@@
पनों
भरती
commits
तीव@@
disregard
Heav@@
राजेश
uro@@
Clear@@
Farid
Dil@@
जबरदस्ती
Different
Prakash
बहुपक्षीय
पहुँचे।
अभिला@@
boycot@@
ARE
imming
आड़ा
troubled
Fit
हितै@@
globally
ilibrium
चट्टानों
कांच
समांतर
दराज़
Shivaji
लीस
निवेशों
घटाना
refined
AP
न्दन
पूर्वज
उतरे
Ya
िय
Navig@@
उधारकर्ता
मूक
क़राबत@@
गल्@@
lod@@
awake
डकै@@
fool@@
yielding
Nana
recep@@
inser@@
Running
क्रमी
Aver@@
blank@@
Provincial
128
cater@@
झारखंड
notices
recommend
expose
NESS
extr@@
लाला
hybrid
इक
commentary
पंडि@@
दिखती
किसकी
बोलता
फतेह
submis@@
irri@@
चौं@@
माँगा
अस्थ@@
peripheral
हुर्इ
अहा@@
vocational
Pha@@
fixing
एकांत
हुज़ूरी
spect
ologies
triumph@@
confer
नीम
kah
प्रचार@@
fatigue
ऊंचा@@
setup
Searching
Jodhpur
मुहाफ़ज़ाह
befell
technic@@
मर्रा
Henry
म्यु@@
डब्ल्यू@@
प्रदूषित
1966
seasonal
उमी@@
Soul
अवरुद्ध
चित्@@
ऊष्@@
passport
लसा
रूक
ambul@@
noon
Yad@@
तज़कि@@
निषि@@
Ambassador
riages
Tomorrow
लैन
pt@@
ठन
Rest@@
BA
निश@@
composite
गाँधीजी
cadre
istoc@@
झगड़
notable
absor@@
ansi
wrongfully
फार
expedition
preliminary
आयताकार
जिंदा
मूर्तियां
discard
retali@@
चढा@@
शब्दा@@
गुरुदेव
सल्ल
serial
हिंदु@@
acknowledge
transgressing
द्वीप@@
प्रविष्टियों
suffice
vigour
Gha@@
बै
व्यंग्य
.03@@
संग्रहीत
इन्तेज़ार
रोजी
सन्तुष्ट
arti@@
lia
narrated
afflict
heartfelt
नेर
readable
expense
peaks
rod
सरणी
साम्@@
अंद@@
कहलाते
स्वै@@
buffalo
cruel
promin@@
मत्ता
तूफ़ा@@
TRU@@
प्रांप्ट
हड़
ext
DB@@
python
dd
IATA
modules
मनोहर
पन्द्र@@
pard@@
Ira@@
flaming
evid@@
praying
गोख@@
वर्गीय
fertility
gesture
sooner
Attach
agree@@
क्षय@@
crow
à¤¸à¤à¤¦à¥à¤¶
राधा@@
धरा@@
disbelieves
illum@@
मुन@@
orities
लिन@@
Wel@@
ophy@@
eance
dare
achi@@
सिन्धु
shaping
©
पड़ो
Madha@@
browsing
haste
पकाने
franch@@
Gad@@
हवाएँ
bidding
वंश@@
घटिया
²à¥à¤@@
extensively
सेनाएँ
lever@@
बुश
आईएफसीआई
Wealth-@@
fice
mustard
maternal
पूर्णांक
हटाएं
debug
PER@@
pion
guideth
proving
तावाद
करुँ
रवा@@
तंबाकू
share@@
फर्नीचर
exporters
targ@@
lab
sighted
thal
योद्धा
Mrs.
पाँच@@
heart@@
complain@@
उद्भव
tempor@@
CI
devast@@
flexibility
जाओं
कछु@@
expressing
quietly
योगों
हसन
दुई
तुल्यकालिक
Diu
पेय@@
à¤«à¤¼à¤¾à¤à¤@@
बेचैनी
deliberations
Renew@@
domination
interact
improper
iry
azi
महज
Vig@@
कुश
आफताब
जुटा
rors
बरतर
pursuance
अनुकूलित
रास
valid@@
tionable
enforce
Religi@@
movies
aquatic
मुबारक
अमान@@
home@@
लाद
सुविधाएँ
परीक्षित
oti
लेखे
मान्यताप्राप्त
Valmiki
veness
restriction
मनाते
educate
अच्छाई
प्रतिभावान
यिता
शुद्धि
WI@@
ango
13th
Compens@@
विभक्त
rub
interpret
मुराद
exported
बिट@@
लिखा।
NC@@
विलास
engine@@
पंक्तियाँ
न्दों
सउ@@
महत्तर
बेचा
linking
ध्या
ठंडी
Submission
ft@@
रास्तों
antic
allegiance
बारगी
अद्यतनीकृत
प्रक्रम
enfor@@
रीडर
here@@
सुव्यवस्थित
estim@@
eal
यकायक
क़िस्म@@
कृष्णा
कने@@
Saturday
एक्सेस
इण्डिया
ध्वाधर
जीवन्त
rance
एनआर@@
अलौ@@
परिधीय
रेलगा@@
geon
दशा@@
गछ
ऑफसेट
Alexander
दफ्तर
Towards
मात्रा@@
आहिस्ता
ओवर
Launch
स्वेच्छा@@
एसोसि@@
aon
rements
ग्रो@@
embracing
OCCASION
Personnel
निस्सन्देह
responsive
अँधेरे
सले
thereupon
laud@@
plague
जिज्ञासा
व्यवस्थापक
attitudes
टोपी
seasons
आक्सीजन
रॉन
Smo@@
हस्तांतरित
vow
मिनि@@
prised
Vil@@
PAN
रियाँ
edural
Us@@
कारखाना
Unlike
अय्यू@@
Late
विमानक्षेत्रों
counsel@@
EST@@
Textiles
इले@@
जिलाता
itions
तकलीफ@@
bosom
Savarkar
Tro@@
Khil@@
Simil@@
पठार
arbitrary
खडा
Mahabharat
अनोखा
गिरि
यत्न
NOT
जानशीन
लालसा
अग्रे@@
पहेली
रूसवाई
tops
मुन्@@
अमो@@
Restart
बले
VER
morph@@
uating
बिछौना
trib@@
flock
बचते
aire
d.
Facility
बाधक
हस्ताक्षर@@
forge
peasant
assent
तत्समय
खिलफ
सन्त
Reser@@
Vrindav@@
जलाने
pouring
कुलपति
झल
चेंज
ourable
उठाएगा
कों@@
योधन
Vy@@
पेण
flag@@
Permanent
iy@@
Naidu
ताबेए
suspicion
Thai
तेहान
जा।
aned
Mater@@
नेम@@
Origin@@
loop
वृत्तियों
एकरू@@
गणक
खुलासा
Controller
हमा@@
च्च
TED
वसाय
उभरा
ony@@
envelop@@
पल्ले
unanim@@
Cot@@
aesthe@@
पिला
घबराहट
डायरी
tants
सुल्तान
inheritors
पार्श्व@@
prosp@@
नायडू
prestigious
हत्या@@
बचाकर
consensus
elite
गोल्@@
गुनेहगार
शारदा
tment
उज्ज्वल
erol
useless
Fron@@
metals
Richard
diameter
Commit
नियल
क़ीन
borrowing
दफ़ा
jan@@
द्धन
orship
frater@@
कुफ्फ़ारे
dad
uno@@
पेशियों
cycl@@
आड@@
दीपा@@
Tak@@
intent
संसाधित
जुडे
क्रमक
autonom@@
Consolidated
बरकतवाला
पहाड़ो
बुर्द@@
षे@@
दरख्तों
gui
उत्सु@@
fications
टोप
ani@@
consisted
AWARDS
आवेदनपत्र
maps
ँः
Soil
minent
charm
Harishchandra
clusion
Yo
क्रिस
heroic
सवाँ
Parag@@
consultancy
aque
ज़िल
चुनिंदा
geable
acia
sim@@
किया@@
ंगण
जाली
घड़@@
buff@@
बेल्@@
अलगाव
reasoning
नातेदार
Santiniketan
कारखानों
figured
adjusted
भित्ति@@
तिथि@@
Zealand
मकानों
blamed
flash
geography
CO2
heated
Hell@@
Alli@@
फेंका
Fur@@
nate
Plas@@
hygiene
प्ता@@
मुनाफेक़ीन
संचारित
Fullscreen
bli@@
तरक
propagation
आयर@@
उच@@
owe
RT@@
haugh@@
गुणित
तोष@@
ग़ा
रेड्डी
शनिवार
glaciers
दीदी
तबलीग़े
saty@@
disper@@
vering
dull
गेटवे
अनुष्ठान
refugees
निन्दा
Siv@@
eldest
पहनते
suffer@@
कब्र
सचे@@
हेनरी
tail@@
मुक़ा@@
मद्दे@@
uture
workshops
र्ष
ladies
रिन
Abhi@@
Opens
Epi@@
ह्रदय
computer@@
ulus
ICAR
जीरिया
reluc@@
erate
चिंघाड़
strong@@
प्पी
घूमते
concession
DG@@
preven@@
मुन्त@@
angered
नय
bowed
rishna
curiosity
इक्विटी
à¤¸à¤à¤@@
pat
Swa@@
learners
assert
बहियों
therlands
गुम्बद
हामान
ग़ि@@
Ho
भूति
observing
शाब्दिक
Rob@@
Temporary
टर्न
distingu@@
parasites
हटाकर
hastened
tedness
iji
Q.
Elections
विय@@
ब्रह्मांड
operates
चमड़े
इंडोनेशिया
क्षम
amus@@
ठाक
निष्क्रियता
मथु@@
च्छन्न
Prabha@@
नौकर
FILE
अनुशा@@
litigation
presum@@
इंडिया@@
होल्@@
à¤ªà¤°
demol@@
पुनर्प्राप्त
temporarily
solely
olate
Guwahati
ulkar
उत्तरार्@@
मेक
shy
अधिष्ठापित
इज्@@
फोर्ड
@@
अतिथियों
पीसी@@
बट्@@
सम्पदा
तफ़@@
namese
ather
छठी
साहसी
memorable
क्के
अभियोजन
jury
सम्मिश्रण
alum@@
recitation
iva
दर्य@@
adeva
Angle
पियर
िकता
blowing
ropolitan
घोल
गड़बड़ी
साम्राज़्य@@
unconscious
sounded
त्तक
endless
adopting
Scal@@
मोड्यूल
iter@@
शिमला
adu
pop
बढ़ोत्तरी
Prad@@
दावे@@
contributes
enched
Method
benefici@@
Bij@@
बेडकर
प्राक्सी
Societies
las
tl@@
मुश्कि@@
उबुन्@@
इच्छ@@
अंधेरा
मुनाफा
आभू@@
अर्द्ध@@
लूप
लूट
connects
तश्@@
Alt
पालक
CS
dig
thana
भण्डार
swif@@
fing@@
फाइनल
मौसमः
consecutive
शाका@@
holistic
Really
co-operation
aggressive
मुबा@@
astrop@@
अमानत
ameters
Gospel
eri
मशहूर
पीटर
गायों
prompted
Gurbakhsh
कावेरी
लाजी
ffing
smiled
मेहराब
attri@@
पार्ट
Documentation
ectful
वाक़ई
फ़ु@@
toxic
आच्छादित
शेक्स@@
greeted
stuck
CONDOLES
नीचा
युग्म
पैग़म्ब@@
यालय
ेन
सुरी
plight
मज्जा
फीक़
Atomic
anten@@
exchanged
lingu@@
pha
cols
frightened
spontaneous
पूछेंगे
eval
शेख़ी
क्षिक
बहुल
बैंककारी
स्मरणीय
सामग्रियों
aceae
prostrated
ब्राजील
fur
आलेखी
माला@@
sikhara
बंधे
बहुतायत
correspon@@
blocked
oy
प्रांतों
स्थापत्य
patronage
ive
survived
Nau@@
अकड़
TIF@@
गुलाब
beating
foster
lasts
Likewise
केला
portr@@
Bcc
अनुसारः
त्यो@@
mystic
Detailed
divisible
एमपी
Recipi@@
Infinite
Whe@@
अर्थात्@@
मैनेजर
look@@
grapes
ambitious
अल्पकालिक
होनेवाला
जुनून
secret@@
वीकार्ड
अद्वैत
ICAO
shorter
Modify
arance
प्पल
lad
fellows
steam
EOL
स्कॉ@@
Swach@@
मिलाने
खेले
खांसी
Gandhian
सान्@@
IB@@
cade
imperialist
उम्मीदवारों
justification
sine
journalism
GAN@@
admissible
diver@@
गैसों
KS@@
oters
काज
ethnic
izon@@
सदस्य@@
maji
Live
निपटारा
संचलन
दोषों
संचयन
प्रलेख
संयोजित
Skip
हैरान
pledged
दिलाओ
टोन
ष्णकटि@@
तुलन
apurna
ऑफ़ि@@
Advance
राह@@
Release
fera
fere
¢@@
ंब
ख़ातिर
pora
utt@@
कपूर
सभ्य
Investi@@
मिलाया
महारानी
Toggles
झगड़ालू
regulating
Venkat@@
चैत्य
tonnage
Shank@@
Myanmar
oe@@
1872
believeth
खंडित
अवशिष्ट
क्षीण
invariably
डेल
ंचना
eland
ruins
aped
कन्न@@
beds
Inbox
संरचनाओं
रूढ़ि@@
Leban@@
Declar@@
राधा
Til@@
Sing@@
rd
aissance
chari@@
Vice-@@
फ्स
गुम@@
dragged
presided
Loans
रूर
अपे@@
mathematical
डि
जानबूझकर
Kail@@
एसटी@@
सोचो
182
side@@
रसो@@
rhy@@
titute
ventures
Iq@@
ele
सम्मान@@
frontier
Rus@@
मुड़कर
Collection
रसी@@
Soci@@
ज़ियाँ
wounded
उगाने
कंप्यूटिंग
roman@@
कीमियागर
Princ@@
Narmadashankar
वायसराय
मसू@@
आविष्@@
resum@@
obstruction
पाली
रन्@@
Teh@@
Savings
श्र
समें
reconciliation
परिचालित
टाल@@
kens
xing
सिंह@@
आनन्दराम
hil
कदमों
स्तीन
tap
सियाँ
सियाह
idly
अंदाज़
congratulations
harmonious
Differ@@
सदिश
मज़हब
कारिता
नामि@@
स्ती@@
erer
beetles
मेंटेनर
verbal
पहुंचे@@
vings
consistency
jump
lapse
मिजोरम
ध्रुवीय
ouldn
मोर्चे
subst@@
loveth
healing
लिखा@@
communist
चार्टर
त्साहित
बदला@@
मैनें
एक्सप्रेशन
स्थायित्व
शल्य@@
imbur@@
leis@@
precision
वेंक@@
à¥à¤
हथि@@
लिप्य@@
@@
चढ़ने
सभ्य@@
सकी।
harmdoers
एल्गोरि@@
ंवाला
घुटनों
रिफ
inhabited
swore
एफ़@@
पाता।
encountered
copying
पायें
severely
revived
fab@@
es.
छापा
sq@@
जाग्रत
श्याम
infrastructural
कोल्@@
Shiv@@
thunder
ठंड
beetle
काटा
लिये।
dock
vy
CII
bank@@
संयोज@@
सोलह
approv@@
lot@@
८०
promis@@
प्रतिकर
cribe
bul
bases
अनगिनत
ंचा@@
फ़र
jar@@
bull
लट@@
vest
oughing
सचेतकर्ता
Scienti@@
कीं।
फैलने
पलटते
गर्भपात
स्वादन
लुक
टियल
mises
spinning
एकाग्र
पंचा@@
ticals
जोखिमों
ग्रन्थों
chee@@
ugins
जादा
निकली
proclamation
नैसर्गिक
bolt
stupid
diac
२०००
२००४
सैं@@
enjoying
गिने
गलियों
sendeth
कान@@
rhyth@@
ainable
rend@@
«@@
Ign@@
रिसा@@
हस्ता@@
airy
घ्@@
कुदर@@
appar@@
Buil@@
achment
abdom@@
चट्@@
robo@@
encryp@@
मख़@@
adul@@
valu@@
preh@@
inno@@
umes
rr@@
transi@@
Sanc@@
invest@@
ध्रु@@
स्कू@@
gn
गेंदबा@@
हीत
एसएम@@
वारों
kra@@
ग़ै@@
viously
hoo
vim@@
good@@
tech@@
‎
Chec@@
omen
ऑब्@@
isite
bran@@
Inte@@
yment
इश@@
करियों
पक्@@
Poli@@
दाहि@@
अनुम@@
nt
connec@@
try@@
organis@@
peo@@
ninet@@
ख्या
परहे@@
ternal
लंब@@
सर्च
produc@@
साथ@@
gists
clamation
तुर@@
निर्मा@@
determin@@
व्यंग@@
yright
होंने
subs@@
ह्रा@@
ञ
contribut@@
perio@@
CT
ials
lation
@@
eased
uded
बाधा@@
tories
प्रभ@@
occas@@
Viet@@
RU@@
विवेक@@
मेह
istrate
कीर्ण
ल्लत
अवय@@
गतिवि@@
immen@@
डीपी@@
CV@@
Chan@@
88@@
पना@@
resear@@
yel@@
magn@@
Mr@@
loo@@
à¤¾@@
isha@@
í@@
lowing
आज@@
@@
erve
संत@@
vibr@@
descrip@@
समृ@@
फिल
specim@@
ख्य
कु
merch@@
सिपा@@
Mach@@
amework
Mess@@
deliver@@
arily
KS
घाटन
atab@@
ग्य
concentr@@
नियन्त्र@@
लीम
Retur@@
आशु@@
phenom@@
legi@@
Isra@@
Beli@@
कश्@@
SID@@
won@@
ंदी
किन@@
ulf
SM@@
mater@@
मला
वाह@@
पीपी@@
ूस
max@@
निकट@@
etes
2018
sincer@@
cons@@
dwell@@
Invest@@
a-@@
लेज
मुद्रा@@
बात@@
धब्@@
कुम
एनआई@@
tivi@@
circu@@
Regu@@
सुंदर@@
umbai
तारी
नती@@
efs
xxxx@@
निरी@@
decre@@
साधारण@@
¹
सरण
डियाँ
MD@@
म्भिक
Lev@@
प्राथमि@@
दक्षि@@
à¤@@
ume
schem@@
Scre@@
कूल
Moz@@
presidentofindia.nic.in
cription
पब्@@
Prepar@@
otechnology
luc@@
exerc@@
मजबू@@
क्सि@@
जूद
Moder@@
स्तु
rebel@@
Tat@@
नेअम@@
हुआ@@
चि
forg@@
आतं@@
जिज्ञा@@
क्षी@@
तली
tificates
र्च
मुख़@@
elop
लग्@@
जन्न@@
istries
rail@@
वता
cir@@
coo@@
agra@@
सीय
मज़ा@@
criter@@
सुलझा@@
ल्म
दिर
send@@
अड्@@
Beng@@
pilgri@@
दोज़@@
वाणिज्य@@
प्रॉ@@
diab@@
कावट
कारि@@
ण्डा@@
Citi@@
tled
bol
sionate
dign@@
परी
moc@@
experim@@
निकों
cil
sligh@@
उपनिवे@@
विज@@
derly
कमजो@@
सीम
Parliam@@
स्र
Termin@@
ainted
unning
nov@@
renew@@
democ@@
ंख@@
brilli@@
SPE@@
spi@@
inian
politici@@
uate
meaning@@
helpl@@
inga
वाओं
powerment
attemp@@
ickness
कुशा@@
रसू@@
ICE
country@@
अंधे@@
टेनर
Where@@
camp@@
सम्बन्@@
गौर@@
पुस्ति@@
decla@@
zil
administr@@
ंजी
राज़@@
blow@@
葉@@
शुभकाम@@
Dwar@@
Part@@
aled
क्षमा@@
There@@
अँधे@@
ROM
ताबे@@
arly
atmos@@
फ्त
magaz@@

गें@@
convinc@@
ऑप्@@
sian
दीर्@@
solid@@
reason@@
yiel@@
टली
ysis
जिए।
profession@@
Priv@@
डब्@@
स्थता
Gab@@
happen@@
Const@@
rul@@
भुत
Indu@@
itment
Tour@@
Jos@@
dit
जीविका
ARD
पवि@@
rier
schol@@
fertiliz@@
ansk@@
विशे@@
स्वय@@
ehic@@
athed
Uz@@
भागी@@
drow@@
oga
त्वपूर्ण
ौप@@
amal@@
enge
tack@@
jour@@
आध्यात्@@
क्रै@@
aggres@@
fortun@@
swi@@
विप@@
डिजि@@
brigh@@
दीक़
picious
कश
obile
प्रतिनि@@
जुट
moment@@
चुने@@
रीब
bid@@
allel
उन्हो@@
signment
र्ट@@
org@@
वैय@@
aths
uman
itage
pati@@
fortunate
entrepreneur@@
फ़ाइ@@
Hos@@
हाइड@@
Benef@@
commit@@
ffici@@
प्रक@@
ensus
Every@@
ulture
Conn@@
ब्य@@
ticulture
unch
atories
कीर
हड्@@
ultural
Bhav@@
भरता
unities
technolo@@
Wee@@
ü@@
though@@
वसू@@
ेद
¬
Sant@@
con
Ya@@
अपेक्षा@@
Bran@@
बिक
सज्जित
क्रमों
ermin@@
expec@@
diary
ळ
शब्@@
Stu@@
सिने@@
वेष
chand
धनु@@
मतें
incorpor@@
खार
umn
तदार
tian
ofs
applic@@
oa
necess@@
uries
prepa@@
199@@
nucle@@
iary
expan@@
तियार
bom@@
जवाब@@
ool@@
goti@@
lag
ege
clou@@
lions
मिश्र@@
ashtra
सूक्ष्@@
thday
सुपुर्@@
posal
आनुवं@@
uter
सज़ा@@
अजी@@
भृ@@
glaci@@
agram
लोकन
दरगाह
colle@@
ato
refer@@
आक्@@
्यार@@
ल्य@@
उन्न@@
finite
नेहर@@
चीज़@@
Goo@@
smil@@
algorith@@
माउ@@
वाम@@
सौहार्@@
Ful@@
erable
elop@@
वगै@@
जनात्मक
II@@
सरता@@
Tech@@
Fran@@
लिम
ether
asero
cust@@
तबली@@
evil@@
Not@@
जने
cence
hati
किलो@@
Bec@@
enditure
Stra@@
prising
न्त्र
¬@@
ग्स
sculp@@
esterday
assem@@
thank@@
mess@@
मज्@@
Free@@
olu@@
obj@@
्राष्ट@@
NU@@
खिड़@@
ड्यूल
गणि@@
infer@@
orig@@
ब्रों
मौजि@@
wed@@
पदार्थ@@
ूत
मूर्त
indec@@
लादेश
पहर
प्रौ@@
ंश@@
वसी@@
ज़ल
मैने@@
थ्@@
कर्त्@@
holid@@
यामत
diam@@
शुरु@@
आफ@@
¦
उभर@@
pran@@
alay@@
pub@@
religi@@
☻@@
साक्षा@@
संलग्@@
उन्नी@@
त्वर@@
cryp@@
glori@@
इलेक्ट्रॉ@@
evertheless
हरे@@
frequ@@
संसा@@
इत्या@@
sych@@
floo@@
इस्त@@
रिएक्@@
Advis@@
bloo@@
scholar@@
गोष्ठ@@
@@
emat@@
Max@@
juris@@
स्तु@@
सिफ़@@
absol@@
पालिका
बक्@@
Ric@@
ugh@@
फते@@
bugger
tour@@
Megh@@
रेल@@
ews
ducing
esia
ंकर
निवा@@
इसरा@@
unci@@
छवि@@
ditional
सम्रा@@
bet
गिरफ्@@
दस्ता@@
eligi@@
town@@
बेव@@
ंडित
Bin@@
Program@@
SOC@@
आपरे@@
अद्@@
auti@@
त्रि
हास
गिक
taneous
appro@@
स्वतं@@
खन@@
experi@@
संतु@@
ंगटन
@@
Teach@@
ership
नुभूति
riage
नक़@@
णे
आयामी
ज़रू@@
eived
विष्@@
रेगि@@
faith@@
ellite
ज़्या@@
सभ@@
दातर
क्री
famili@@
depri@@
यरी
yalty
फिल@@
gorith@@
ags
Pras@@
नागा@@
anskrit
English@@
पत्रि@@
dur
apers
itness
मेडि@@
stom@@
discipl@@
तुम्@@
आज़ा@@
तथा@@
गुना@@
Farm@@
vou@@
dul@@
griev@@
मंज़ि@@
ouse@@
rejo@@
रवै@@
taneously
Luc@@
तूफा@@
deri@@
alpha@@
लूम
pear@@
forec@@
RO
gment
Palest@@
आश्चर्य@@
unciation
deriv@@
Chr@@
desir@@
नाट@@
prin@@
perc@@
पया
seas@@
aco@@
Fed@@
innov@@
खा।
द्धि
ख्वाहि@@
रद्@@
plom@@
विशेषा@@
porters
विकला@@
ilitation
म्र
tee
Glo@@
wonder@@
टार्@@
eri@@
ainst
ंदा@@
ज्यो@@
YS
शुभ@@
थाम
Chin@@
ल्लम
ख़ै@@
उधार@@
acco
मुसल@@
मुँ@@
इन्ते@@
चिह्@@
Lati@@
Rajas@@
ction
Rashtr@@
alco@@
enger
itely
Dest@@
शुरू@@
streng@@
डिट
इता@@
सियत
न्त्र@@
उल्लं@@
नाबा@@
थान
ारित
clam@@
cils
negl@@
onts
आकर्@@
graph@@
सहम@@
polythe@@
वरीय@@
पश्चि@@
लिमों
abund@@
untary
aneous
sci@@
seeker
cc
Charac@@
Ever@@
पचा@@
pura
नेवालो
फ़ाइल@@
dum
ebr@@
etion
निष@@
gath@@
क्रमित
tili@@
yle
volun@@
आईएफ@@
पश्@@
atre
डिब@@
administ@@
Revi@@
आति@@
प्रसन्@@
सूस
ston
eignty
लॉन्@@
eper
ग्रु@@
clip@@
dest
ticed
stit@@
हब
Person@@
f-@@
☺
Mail@@
अधिका@@
बहार
writ@@
ó@@
resurrec@@
supr@@
संपर्@@
कुंजी@@
शीघ@@
उपरा@@
हथ@@
dang@@
alth
bre
समाना@@
Distri@@
amet@@
netic
eget@@
µ
डरों
खाद्@@
achiev@@
अमृ@@
neigh@@
racy
पुरू@@
अवै@@
epis@@
erever
NH@@
foo@@
कांग्रे@@
affor@@
ools
GS
oner
West@@
राजपू@@
आधुनि@@
Prin@@
tuber@@
incur@@
agre@@
conflic@@
Institu@@
co-@@
tup
रचे
rish@@
quanti@@
दीदा
dia@@
cket
clud@@
स्मार@@
Chro@@
omes
बई
ador@@
agraha
ेश
ग्रामी@@
कृतिक
¼
जमान@@
रोज़@@
भिन्न@@
चिका
जाइश
प्ट
success@@
friend@@
ब्रह्@@
मेश्वर
Pak@@
aul
bel
पूर
ensed
quiry
parency
संहि@@
गुला@@
सोसि@@
Jawa@@
regim@@
stances
रूपां@@
devi
develop@@
coven@@
सैन
mom@@
ग़र@@
tex@@
led@@
ushed
embo@@
Iran@@
टवर्ती
c.
सिंहा@@
escap@@
परेशा@@
astes
कौं@@
liti@@
बहर@@
रख्@@
Sah@@
pharm@@
impres@@
स्फीति
abstr@@
dio
occur@@
Bot@@
brea@@
own@@
itan
ä@@
shoul@@
represent@@
♪
som
बुढ़ा@@
estion
क्टे@@
इयाँ
फूँ@@
संगी@@
ommun@@
सॉफ्@@
पीडी@@
otal
Mug@@
phenomen@@
scen@@
nan
senti@@
uter@@
chair@@
कम्यु@@
LIN@@
जिस@@
Bach@@
कट्@@
xim@@
प्रथा@@
accel@@
solem@@
इयां
alt
सानों
कोच
ody
नसी@@
संदर्भ@@
ताजी
stitute
versal
नियमा@@
rati@@
eive
ario
हिमन@@
Durg@@
अनिवा@@
संग्र@@

prais@@
ंतों
volunte@@
pestic@@
langu@@
शार@@
ृंख@@
accep@@
देखि@@
opol@@
refu@@
hical
स्तों
बीसी
फेस
Wik@@
stead
yth@@
हिन्दु@@
कारिक
infid@@
boy@@
obi@@
सन्तु@@
Mahab@@
Dav@@
हरिया@@
mony
divor@@
Abo@@
बिछ@@
achments
सात्मक
कठिना@@
विस्ता@@
परामर्@@
ources
सच्@@
lymp@@
प्रचु@@
तमन्@@
सुभाष@@
illed
ज्जु@@
classi@@
लाह@@
Ans@@
oughout
resul@@
dians
deliber@@
सामर्थ@@
duces
लील
स्मर@@
pover@@
Pub@@
utely
अके@@
tifications
sty@@
उद्देश@@
ग़ैर
खिक
ग्राह@@
recomm@@
उत्कृ@@
ulties
habad
seiz@@
पात@@
vill@@
ारस
denomin@@
clust@@
गोला@@
uminous
airs
equi@@
Amb@@
खिल
Know@@
राष्ट@@
Yam@@
ilities
tific@@
क्षति@@
quake
hygi@@
jected
ट्रल
जारों
sibly
याम
केडी@@
hec@@
dn
mov@@
गवा@@
¹@@
opport@@
Portu@@
repent@@
membran@@
पसन्@@
Upan@@
Arch@@
heed@@
urance
vas
उत्तम@@
माप@@
शता@@
bos@@
क़ौ@@
चाँ@@
mind@@
त्रु@@
नाफ़र@@
Spl@@
असफल@@
warran@@
Chal@@
निदेश@@
favour@@
tancy
assemb@@
Kis@@
eans
movable
xy
विवेकान@@
हीद
sequently
दर्द@@
उलझ@@
फिरों
कुफ्@@
metic
प्रोफे@@
twel@@
समया@@
लेखी
bled
Pran@@
Him@@
ainer
टान
§
अनो@@
stead@@
blems
PK@@
मेहरा@@
compet@@
पृथ्@@
Bhut@@
परमाण@@
pread
अस्ति@@
small@@
अमृत@@
अठार@@
औं@@
Tog@@
giveness
विजे@@
Brow@@
01.@@
भारती@@
posite
माही
सीआई
iga
मेमो@@
Satur@@
सलाह@@
Panchay@@
near@@
Ayur@@
आधु@@
tu
Baha@@
utr@@
वारा@@
विश्रा@@
vest@@
«
practis@@
शिवा@@
सश@@
IMA@@
thu@@
bound@@
legisl@@
multit@@
exi@@
col
Intern@@
जहाँ@@
नानी
mathema@@
Jagann@@
agari
genous
inher@@
Admini@@
mach@@
phen@@
दिष्ट
निस्ट
lars
invol@@
पहुँ@@
दार्श@@
197@@
सटी@@
[...]
